{
  "version": "1.0",
  "truncation": null,
  "padding": null,
  "added_tokens": [
    {
      "id": 0,
      "content": "<|unk|>",
      "single_word": false,
      "lstrip": false,
      "rstrip": false,
      "normalized": false,
      "special": true
    },
    {
      "id": 1,
      "content": "<|endoftext|>",
      "single_word": false,
      "lstrip": false,
      "rstrip": false,
      "normalized": false,
      "special": true
    }
  ],
  "normalizer": null,
  "pre_tokenizer": {
    "type": "ByteLevel",
    "add_prefix_space": true,
    "trim_offsets": true,
    "use_regex": true
  },
  "post_processor": null,
  "decoder": null,
  "model": {
    "type": "BPE",
    "dropout": null,
    "unk_token": "<|unk|>",
    "continuing_subword_prefix": null,
    "end_of_word_suffix": null,
    "fuse_unk": false,
    "byte_fallback": false,
    "ignore_merges": false,
    "vocab": {
      "<|unk|>": 0,
      "<|endoftext|>": 1,
      "!": 2,
      "\"": 3,
      "#": 4,
      "$": 5,
      "%": 6,
      "&": 7,
      "'": 8,
      "(": 9,
      ")": 10,
      "*": 11,
      "+": 12,
      ",": 13,
      "-": 14,
      ".": 15,
      "/": 16,
      "0": 17,
      "1": 18,
      "2": 19,
      "3": 20,
      "4": 21,
      "5": 22,
      "6": 23,
      "7": 24,
      "8": 25,
      "9": 26,
      ":": 27,
      ";": 28,
      "<": 29,
      "=": 30,
      ">": 31,
      "?": 32,
      "@": 33,
      "A": 34,
      "B": 35,
      "C": 36,
      "D": 37,
      "E": 38,
      "F": 39,
      "G": 40,
      "H": 41,
      "I": 42,
      "J": 43,
      "K": 44,
      "L": 45,
      "M": 46,
      "N": 47,
      "O": 48,
      "P": 49,
      "Q": 50,
      "R": 51,
      "S": 52,
      "T": 53,
      "U": 54,
      "V": 55,
      "W": 56,
      "X": 57,
      "Y": 58,
      "Z": 59,
      "[": 60,
      "\\": 61,
      "]": 62,
      "^": 63,
      "_": 64,
      "`": 65,
      "a": 66,
      "b": 67,
      "c": 68,
      "d": 69,
      "e": 70,
      "f": 71,
      "g": 72,
      "h": 73,
      "i": 74,
      "j": 75,
      "k": 76,
      "l": 77,
      "m": 78,
      "n": 79,
      "o": 80,
      "p": 81,
      "q": 82,
      "r": 83,
      "s": 84,
      "t": 85,
      "u": 86,
      "v": 87,
      "w": 88,
      "x": 89,
      "y": 90,
      "z": 91,
      "{": 92,
      "|": 93,
      "}": 94,
      "~": 95,
      "¡": 96,
      "¢": 97,
      "£": 98,
      "¤": 99,
      "¥": 100,
      "¦": 101,
      "§": 102,
      "¨": 103,
      "©": 104,
      "ª": 105,
      "«": 106,
      "¬": 107,
      "®": 108,
      "¯": 109,
      "°": 110,
      "±": 111,
      "²": 112,
      "³": 113,
      "´": 114,
      "µ": 115,
      "¶": 116,
      "·": 117,
      "¸": 118,
      "¹": 119,
      "º": 120,
      "»": 121,
      "¼": 122,
      "½": 123,
      "¾": 124,
      "¿": 125,
      "Â": 126,
      "Ã": 127,
      "Ä": 128,
      "Å": 129,
      "Æ": 130,
      "Ç": 131,
      "È": 132,
      "É": 133,
      "Ê": 134,
      "Ë": 135,
      "Ì": 136,
      "Í": 137,
      "Î": 138,
      "Ï": 139,
      "Ð": 140,
      "Ñ": 141,
      "Ò": 142,
      "Ó": 143,
      "Ô": 144,
      "Õ": 145,
      "Ö": 146,
      "×": 147,
      "Ø": 148,
      "Ù": 149,
      "Ú": 150,
      "Û": 151,
      "Ü": 152,
      "Ý": 153,
      "Þ": 154,
      "à": 155,
      "á": 156,
      "â": 157,
      "ã": 158,
      "ä": 159,
      "å": 160,
      "æ": 161,
      "ç": 162,
      "è": 163,
      "é": 164,
      "ê": 165,
      "ë": 166,
      "ì": 167,
      "í": 168,
      "î": 169,
      "ï": 170,
      "ð": 171,
      "Ċ": 172,
      "Ġ": 173,
      "ġ": 174,
      "Ģ": 175,
      "ģ": 176,
      "Ĥ": 177,
      "ĥ": 178,
      "Ħ": 179,
      "ħ": 180,
      "Ĩ": 181,
      "ĩ": 182,
      "Ī": 183,
      "ī": 184,
      "Ĭ": 185,
      "ĭ": 186,
      "Į": 187,
      "į": 188,
      "İ": 189,
      "ı": 190,
      "Ĳ": 191,
      "ĳ": 192,
      "Ĵ": 193,
      "ĵ": 194,
      "Ķ": 195,
      "ķ": 196,
      "ĸ": 197,
      "Ĺ": 198,
      "ĺ": 199,
      "Ļ": 200,
      "ļ": 201,
      "Ľ": 202,
      "ľ": 203,
      "Ŀ": 204,
      "ŀ": 205,
      "Ł": 206,
      "ł": 207,
      "Ń": 208,
      "ï¼": 209,
      "ä¸": 210,
      "ãĢ": 211,
      "ï¼Į": 212,
      "äº": 213,
      "çļ": 214,
      "çļĦ": 215,
      "ãĢĤ": 216,
      "åı": 217,
      "åħ": 218,
      "æľ": 219,
      "ä»": 220,
      "å¹": 221,
      "å¤": 222,
      "åľ": 223,
      "åĲ": 224,
      "åĪ": 225,
      "åĽ": 226,
      "å®": 227,
      "ä½": 228,
      "ĠĊ": 229,
      "åį": 230,
      "çĶ": 231,
      "æĺ": 232,
      "å¹´": 233,
      "æĸ": 234,
      "æĹ": 235,
      "è¿": 236,
      "å°": 237,
      "ä¹": 238,
      "ãĢģ": 239,
      "ç»": 240,
      "ä¸Ģ": 241,
      "åľ¨": 242,
      "åŃ": 243,
      "ä¸º": 244,
      "åĬ": 245,
      "ä¼": 246,
      "æĪ": 247,
      "å¸": 248,
      "åĮ": 249,
      "æĺ¯": 250,
      "ä¸Ń": 251,
      "åĽ½": 252,
      "è¯": 253,
      "åĨ": 254,
      "äºº": 255,
      "è®": 256,
      "æĿ": 257,
      "åº": 258,
      "å·": 259,
      "éĩ": 260,
      "å¼": 261,
      "å¾": 262,
      "ï¼Ī": 263,
      "ï¼ī": 264,
      "ç§": 265,
      "äºİ": 266,
      "çī": 267,
      "è¡": 268,
      "å¤§": 269,
      "çº": 270,
      "å±": 271,
      "æľī": 272,
      "æī": 273,
      "åĩ": 274,
      "æĶ": 275,
      "éĢ": 276,
      "æŃ": 277,
      "éĥ": 278,
      "åĴ": 279,
      "èĢ": 280,
      "æķ": 281,
      "æ°": 282,
      "éĻ": 283,
      "åİ": 284,
      "åĴĮ": 285,
      "å¯": 286,
      "å½": 287,
      "èµ": 288,
      "çĽ": 289,
      "æĭ": 290,
      "çİ": 291,
      "ä»¥": 292,
      "20": 293,
      "å¥": 294,
      "æľĪ": 295,
      "èĩ": 296,
      "æ³": 297,
      "æĹ¥": 298,
      "æł": 299,
      "éĺ": 300,
      "åĲİ": 301,
      "è¾": 302,
      "æµ": 303,
      "åŃ¦": 304,
      "æ²": 305,
      "19": 306,
      "äºĨ": 307,
      "âĢ": 308,
      "æĹ¶": 309,
      "ä¸ª": 310,
      "åĳ": 311,
      "ç«": 312,
      "æĢ": 313,
      "ä¼ļ": 314,
      "è´": 315,
      "è§": 316,
      "åľ°": 317,
      "éķ": 318,
      "åŁ": 319,
      "æĪĲ": 320,
      "éĹ": 321,
      "åħ¬": 322,
      "è½": 323,
      "éĿ": 324,
      "ä¸Ĭ": 325,
      "en": 326,
      "çĲ": 327,
      "ä¸į": 328,
      "æĸ¯": 329,
      "te": 330,
      "åī": 331,
      "æ´": 332,
      "åĩº": 333,
      "è¡Į": 334,
      "æ¯": 335,
      "æŀ": 336,
      "ä»ĸ": 337,
      "éĥ¨": 338,
      "æ¸": 339,
      "æĬ": 340,
      "åĮº": 341,
      "of": 342,
      "ä¹ĭ": 343,
      "ä¸İ": 344,
      "å°Ķ": 345,
      "ç¬": 346,
      "Ġ<": 347,
      "end": 348,
      "xt": 349,
      "æĽ": 350,
      "text": 351,
      "åĲį": 352,
      "|>": 353,
      "endof": 354,
      "Ġ<|": 355,
      "endoftext": 356,
      "ç½": 357,
      "ä¸»": 358,
      "éģ": 359,
      "åıĳ": 360,
      "çŃ": 361,
      "åħ¶": 362,
      "æİ": 363,
      "ä½ľ": 364,
      "çĶŁ": 365,
      "ä¿": 366,
      "èĥ": 367,
      "åĪĨ": 368,
      "æĸ¹": 369,
      "è¥": 370,
      "è¥¿": 371,
      "è¢": 372,
      "ä¸ĭ": 373,
      "å§": 374,
      "çĶ¨": 375,
      "ç¬¬": 376,
      "åĪ°": 377,
      "å¿": 378,
      "éĩĮ": 379,
      "æ±": 380,
      "å®¶": 381,
      "ãĢĭ": 382,
      "ãĢĬ": 383,
      "ä½į": 384,
      "èĢĮ": 385,
      "åĨĽ": 386,
      "ç¾": 387,
      "çĶ±": 388,
      "åıĬ": 389,
      "Â·": 390,
      "å»": 391,
      "è·": 392,
      "é¢": 393,
      "æ¬": 394,
      "éĽ": 395,
      "æ°ĳ": 396,
      "åįĹ": 397,
      "æľ¬": 398,
      "è¢«": 399,
      "é¦": 400,
      "æ³ķ": 401,
      "å¹¶": 402,
      "èĭ": 403,
      "å¸Ĥ": 404,
      "æĮ": 405,
      "éķ¿": 406,
      "è¿Ļ": 407,
      "æĿ¥": 408,
      "ä¾": 409,
      "åĲĮ": 410,
      "å¤ļ": 411,
      "åı¯": 412,
      "åŃĲ": 413,
      "ç±": 414,
      "åĵ": 415,
      "æĶ¿": 416,
      "å¯¹": 417,
      "é©": 418,
      "çī¹": 419,
      "çľ": 420,
      "åĬ¨": 421,
      "èĩª": 422,
      "ï¼ļ": 423,
      "ä»»": 424,
      "èģ": 425,
      "å¾·": 426,
      "æĸĩ": 427,
      "åĮĹ": 428,
      "å¼Ģ": 429,
      "åħĭ": 430,
      "åĿ": 431,
      "é«": 432,
      "201": 433,
      "åĬł": 434,
      "é«ĺ": 435,
      "ä¸ľ": 436,
      "æµ·": 437,
      "äºļ": 438,
      "æĸ°": 439,
      "åĪ©": 440,
      "å£": 441,
      "åı°": 442,
      "æľĢ": 443,
      "ãĢĮ": 444,
      "ãĢį": 445,
      "200": 446,
      "åĳĺ": 447,
      "ä»£": 448,
      "èī": 449,
      "å¹³": 450,
      "åīį": 451,
      "ä¹Ł": 452,
      "¦ģ": 453,
      "çŃī": 454,
      "æīĢ": 455,
      "èİ": 456,
      "éģĵ": 457,
      "ä¸ī": 458,
      "ä¸Ģä¸ª": 459,
      "æĻ": 460,
      "çĶµ": 461,
      "éĿ¢": 462,
      "åº¦": 463,
      "èĪ": 464,
      "ç»ı": 465,
      "å²": 466,
      "åĽł": 467,
      "ç¾İ": 468,
      "çİ°": 469,
      "æŃ¤": 470,
      "å»º": 471,
      "å¾Ĺ": 472,
      "æĭī": 473,
      "çī©": 474,
      "è¿Ľ": 475,
      "ç¤": 476,
      "å±±": 477,
      "çŁ": 478,
      "è¿ĩ": 479,
      "æľº": 480,
      "è¦ģ": 481,
      "å°ı": 482,
      "âĢľ": 483,
      "æķĻ": 484,
      "âĢĿ": 485,
      "åĨħ": 486,
      "å¦": 487,
      "ç¥": 488,
      "éĹ´": 489,
      "çķ": 490,
      "ç©": 491,
      "è·¯": 492,
      "äºĭ": 493,
      "èĩ³": 494,
      "ç«ĭ": 495,
      "è½¦": 496,
      "ï¼īï¼Į": 497,
      "åı£": 498,
      "æĪĺ": 499,
      "èĲ": 500,
      "å½ĵ": 501,
      "é¡": 502,
      "ä½ĵ": 503,
      "åħ¥": 504,
      "é©¬": 505,
      "è°": 506,
      "ä¸ĸ": 507,
      "ç®": 508,
      "èĥ½": 509,
      "äºĮ": 510,
      "å·ŀ": 511,
      "å°Ĩ": 512,
      "èĬ": 513,
      "è¡¨": 514,
      "çĲĨ": 515,
      "éļ": 516,
      "å¤©": 517,
      "è¶": 518,
      "å·¥": 519,
      "åĲĪ": 520,
      "é£": 521,
      "å¤ĸ": 522,
      "çĲĥ": 523,
      "ç§ĳ": 524,
      "éĵ": 525,
      "å®ļ": 526,
      "è¯¥": 527,
      "èµĽ": 528,
      "åįģ": 529,
      "åĮĸ": 530,
      "æľŁ": 531,
      "æı": 532,
      "ç§į": 533,
      "ä½Ĩ": 534,
      "ä¸ļ": 535,
      "å¸ĥ": 536,
      "ç³": 537,
      "çĻ": 538,
      "ä½¿": 539,
      "åĪ¶": 540,
      "æĦ": 541,
      "æ¬¡": 542,
      "åħ¨": 543,
      "æ¹": 544,
      "åľº": 545,
      "åİ¿": 546,
      "èĤ": 547,
      "ç§°": 548,
      "æĢ§": 549,
      "éĢļ": 550,
      "æĢ»": 551,
      "éĺŁ": 552,
      "çº¿": 553,
      "éŁ": 554,
      "æĥ": 555,
      "ä¸ŃåĽ½": 556,
      "èĢħ": 557,
      "æį": 558,
      "ç½Ĺ": 559,
      "åħ±": 560,
      "çĪ": 561,
      "è®¾": 562,
      "å¼ı": 563,
      "æķ°": 564,
      "æģ": 565,
      "éĩį": 566,
      "00": 567,
      "éĥ½": 568,
      "å®ī": 569,
      "éĤ": 570,
      "ç³»": 571,
      "æ¡": 572,
      "æŁ": 573,
      "ç¦": 574,
      "å£«": 575,
      "ä¸¤": 576,
      "åĬĽ": 577,
      "ç¨": 578,
      "çĤ": 579,
      "çł": 580,
      "ç«Ļ": 581,
      "æ¯Ķ": 582,
      "åŁº": 583,
      "èģĶ": 584,
      "æ¼": 585,
      "çİĭ": 586,
      "çľģ": 587,
      "è¾¾": 588,
      "åŁİ": 589,
      "éĻ¢": 590,
      "é»": 591,
      "åİŁ": 592,
      "å±ŀ": 593,
      "çĽ¸": 594,
      "å°¼": 595,
      "æĺİ": 596,
      "è¿Ĳ": 597,
      "éķĩ": 598,
      "ï¼Ľ": 599,
      "æł¼": 600,
      "æ°´": 601,
      "çĽ®": 602,
      "ç¼": 603,
      "éĩĳ": 604,
      "ç±³": 605,
      "å¡": 606,
      "åı¸": 607,
      "åįİ": 608,
      "åģ": 609,
      "å¢": 610,
      "æ²»": 611,
      "æŃ£": 612,
      "èĭ±": 613,
      "åħ°": 614,
      "åĪĹ": 615,
      "åı·": 616,
      "èĳ": 617,
      "ç»Ł": 618,
      "å·´": 619,
      "åºľ": 620,
      "çº¦": 621,
      "æĺŁ": 622,
      "åħ³": 623,
      "çģ": 624,
      "ç»Ħ": 625,
      "åĽĽ": 626,
      "çĦ": 627,
      "èį": 628,
      "éĺ¿": 629,
      "ä»¬": 630,
      "å¦Ĥ": 631,
      "æĪĸ": 632,
      "åħĥ": 633,
      "éĢī": 634,
      "æ¸¯": 635,
      "è®¡": 636,
      "å½±": 637,
      "10": 638,
      "è¯Ń": 639,
      "èµ·": 640,
      "ä»İ": 641,
      "åŀ": 642,
      "å¥³": 643,
      "äº§": 644,
      "é¦ĸ": 645,
      "å¸¸": 646,
      "æŀĹ": 647,
      "æıĲ": 648,
      "äººåı£": 649,
      "åĶ": 650,
      "åĢ": 651,
      "æĶ¹": 652,
      "æ¼Ķ": 653,
      "åį¡": 654,
      "æ®": 655,
      "å¿ĥ": 656,
      "éĩı": 657,
      "éĶ": 658,
      "çĦ¶": 659,
      "18": 660,
      "éħ": 661,
      "ä¹Ĳ": 662,
      "åĲĳ": 663,
      "éľ": 664,
      "é²": 665,
      "å°±": 666,
      "æ¶": 667,
      "è£": 668,
      "è®®": 669,
      "å§ĭ": 670,
      "æİ¥": 671,
      "çķĮ": 672,
      "æĹł": 673,
      "å®ŀ": 674,
      "æ²³": 675,
      "ä½įäºİ": 676,
      "ä¹ī": 677,
      "ä¹¦": 678,
      "çº§": 679,
      "åĬ¡": 680,
      "åıĤ": 681,
      "ç¾İåĽ½": 682,
      "åħ¬éĩĮ": 683,
      "å¹¿": 684,
      "æĽ¾": 685,
      "12": 686,
      "æĦı": 687,
      "ç»´": 688,
      "åĪĻ": 689,
      "å¨": 690,
      "çĥ": 691,
      "æ·": 692,
      "ç®¡": 693,
      "åįķ": 694,
      "ç´": 695,
      "è¯´": 696,
      "æīĭ": 697,
      "å§Ķ": 698,
      "æĴ": 699,
      "èī²": 700,
      "æ£": 701,
      "è§Ĩ": 702,
      "ç¨ĭ": 703,
      "åıĹ": 704,
      "ä¿Ŀ": 705,
      "å½¢": 706,
      "éĹ¨": 707,
      "äº¤": 708,
      "an": 709,
      "åĽ¢": 710,
      "æĮĩ": 711,
      "éĴ": 712,
      "å¤«": 713,
      "æ¹¾": 714,
      "åĮħ": 715,
      "Ġ(": 716,
      "æµģ": 717,
      "ç»ĵ": 718,
      "åł": 719,
      "åŀĭ": 720,
      "é¦Ļ": 721,
      "éŁ³": 722,
      "å·²": 723,
      "ä¼ł": 724,
      "å¤Ħ": 725,
      "èº": 726,
      "åĭ": 727,
      "äºĽ": 728,
      "çĽ´": 729,
      "åħļ": 730,
      "æ¢": 731,
      "ç±»": 732,
      "é¾": 733,
      "å¤ª": 734,
      "éĽĨ": 735,
      "åı²": 736,
      "å²Ľ": 737,
      "ä¸ĩ": 738,
      "çĭ": 739,
      "èİ·": 740,
      "åıĺ": 741,
      "èº«": 742,
      "çĤ¹": 743,
      "199": 744,
      "æº": 745,
      "å¤§åŃ¦": 746,
      "èĮ": 747,
      "äºĶ": 748,
      "åºĶ": 749,
      "åŃĹ": 750,
      "èĴ": 751,
      "ï¼īãĢĤ": 752,
      "å¯¼": 753,
      "ç©º": 754,
      "è®¤": 755,
      "æľĿ": 756,
      "å¥¥": 757,
      "èĻ": 758,
      "åĵģ": 759,
      "æł¡": 760,
      "æ±Ł": 761,
      "or": 762,
      "åı¯ä»¥": 763,
      "åı¤": 764,
      "çı": 765,
      "11": 766,
      "in": 767,
      "é¢Ĩ": 768,
      "åĽŀ": 769,
      "éĵģ": 770,
      "å¼ł": 771,
      "æĽ´": 772,
      "ç¤¾": 773,
      "å±ķ": 774,
      "è¿ĺ": 775,
      "åħ¬åı¸": 776,
      "ç§¯": 777,
      "æ»": 778,
      "ç¤º": 779,
      "åĽ¾": 780,
      "er": 781,
      "on": 782,
      "æ´²": 783,
      "å¸Ī": 784,
      "æĹ¥æľ¬": 785,
      "åľ°åĮº": 786,
      "åĲĦ": 787,
      "æĮģ": 788,
      "å¸¦": 789,
      "å¹³æĸ¹": 790,
      "çļĦä¸Ģä¸ª": 791,
      "å®ĺ": 792,
      "èĳĹ": 793,
      "åĪ«": 794,
      "æĶ¿åºľ": 795,
      "éª": 796,
      "åıį": 797,
      "åıª": 798,
      "é£İ": 799,
      "ä¸ĵ": 800,
      "åĳ½": 801,
      "çºª": 802,
      "åķ": 803,
      "ä½¿çĶ¨": 804,
      "èĦ": 805,
      "æ¸¸": 806,
      "çº³": 807,
      "äº¬": 808,
      "æĪĲä¸º": 809,
      "åħī": 810,
      "çĿ": 811,
      "æĻ®": 812,
      "ç²": 813,
      "é¦Ļæ¸¯": 814,
      "æ´»": 815,
      "èµĦ": 816,
      "åıĸ": 817,
      "çŁ³": 818,
      "æį®": 819,
      "éĢł": 820,
      "æĬ¥": 821,
      "å¼Ģå§ĭ": 822,
      "ä¿¡": 823,
      "ä¸¾": 824,
      "åĩ»": 825,
      "æľ¯": 826,
      "é¾Ļ": 827,
      "æĹı": 828,
      "å°ĳ": 829,
      "æĿĳ": 830,
      "ç¥ŀ": 831,
      "æĽ²": 832,
      "åİĨ": 833,
      "ä¹¡": 834,
      "æ¸ħ": 835,
      "åĽ½å®¶": 836,
      "æĶ¯": 837,
      "çĵ": 838,
      "ç¡": 839,
      "å±Ģ": 840,
      "è¿ĳ": 841,
      "æłĩ": 842,
      "åī§": 843,
      "éĻħ": 844,
      "æ³¢": 845,
      "èĭı": 846,
      "æ²¡": 847,
      "ç¿": 848,
      "è§£": 849,
      "ä¼Ĭ": 850,
      "è½¬": 851,
      "æĥħ": 852,
      "èĬĤ": 853,
      "éĿŀ": 854,
      "åı°æ¹¾": 855,
      "å®ĥ": 856,
      "åıĪ": 857,
      "åĻ": 858,
      "è®º": 859,
      "æ¯ı": 860,
      "çļĦä¸Ģ": 861,
      "çłĶ": 862,
      "è§Ĵ": 863,
      "ç¬¬ä¸Ģ": 864,
      "è®°": 865,
      "åĸ": 866,
      "Ġ201": 867,
      "ä»¶": 868,
      "æĿĥ": 869,
      "15": 870,
      "æĿ¡": 871,
      "çĬ": 872,
      "è±": 873,
      "æŃ¦": 874,
      "æ°Ķ": 875,
      "å¤´": 876,
      "æĶ¾": 877,
      "åĨ³": 878,
      "çīĩ": 879,
      "æĿİ": 880,
      "åħ¶ä¸Ń": 881,
      "ä»¥åıĬ": 882,
      "è¾ĸ": 883,
      "å¯Ĩ": 884,
      "å¹³æĸ¹åħ¬éĩĮ": 885,
      "è¿ŀ": 886,
      "åį³": 887,
      "çīĪ": 888,
      "åķĨ": 889,
      "æ¨": 890,
      "å¥¹": 891,
      "ï¼Īï¼ī": 892,
      "åĳ¨": 893,
      "æĳ": 894,
      "åħĪ": 895,
      "çĻ½": 896,
      "åº§": 897,
      "èģĮ": 898,
      "æĭ¬": 899,
      "æĶ¶": 900,
      "ar": 901,
      "è¿Ľè¡Į": 902,
      "åĻ¨": 903,
      "çŁ¥": 904,
      "åľ£": 905,
      "çĸ": 906,
      "Ġ19": 907,
      "ç¦ı": 908,
      "ä¸ĸçķĮ": 909,
      "æŀľ": 910,
      "å¾Ģ": 911,
      "åİ»": 912,
      "æł¹": 913,
      "ç¦»": 914,
      "æľª": 915,
      "è¶³": 916,
      "å¼º": 917,
      "æŃĮ": 918,
      "åĪĽ": 919,
      "16": 920,
      "ä¸»è¦ģ": 921,
      "åĮħæĭ¬": 922,
      "åĨį": 923,
      "å¡Ķ": 924,
      "äººæ°ĳ": 925,
      "åĪĿ": 926,
      "éĿ¢ç§¯": 927,
      "éĻĨ": 928,
      "åħŃ": 929,
      "17": 930,
      "ç©¶": 931,
      "çĹ": 932,
      "åĬŀ": 933,
      "æ±ī": 934,
      "éĺ³": 935,
      "åŃ£": 936,
      "çĳ": 937,
      "æ²¡æľī": 938,
      "ä¸Ķ": 939,
      "æ´¾": 940,
      "åħµ": 941,
      "ä»Ĭ": 942,
      "å±ħ": 943,
      "äº²": 944,
      "å¤į": 945,
      "èĹ": 946,
      "ä»ĸä»¬": 947,
      "å¼ķ": 948,
      "èı": 949,
      "æĺ¯ä¸Ģ": 950,
      "è°ĥ": 951,
      "æīĵ": 952,
      "å¸Ŀ": 953,
      "åĪĴ": 954,
      "éĥ¨åĪĨ": 955,
      "å®Į": 956,
      "äº¦": 957,
      "çłĶç©¶": 958,
      "åŁŁ": 959,
      "è§Ĥ": 960,
      "èĬ±": 961,
      "å®Ĺ": 962,
      "è®¸": 963,
      "è£ħ": 964,
      "å¨ģ": 965,
      "ç½ĳ": 966,
      "la": 967,
      "æļ": 968,
      "è´¨": 969,
      "èĲ¨": 970,
      "æĴŃ": 971,
      "äºī": 972,
      "éĻ¤": 973,
      "å¥ĸ": 974,
      "ç¼ĸ": 975,
      "é¢ĺ": 976,
      "æ¥": 977,
      "åĽŃ": 978,
      "éĽ·": 979,
      "åħ«": 980,
      "æ®µ": 981,
      "èĤ²": 982,
      "ç»Ń": 983,
      "éļı": 984,
      "é»Ħ": 985,
      "æľį": 986,
      "çĪ±": 987,
      "ä»¤": 988,
      "å¾Ī": 989,
      "è¾ĥ": 990,
      "çĵ¦": 991,
      "æ´Ľ": 992,
      "éĢŁ": 993,
      "å¸Į": 994,
      "æŀĦ": 995,
      "è¨": 996,
      "åįı": 997,
      "ç»Ļ": 998,
      "è¨Ģ": 999,
      "å§Ķåĳĺ": 1000,
      "çĶ±äºİ": 1001,
      "æĪı": 1002,
      "åĦ": 1003,
      "åľŁ": 1004,
      "è§ģ": 1005,
      "è®¤ä¸º": 1006,
      "è¡Ĺ": 1007,
      "ä¿®": 1008,
      "åĲī": 1009,
      "åĬŁ": 1010,
      "åĵĪ": 1011,
      "14": 1012,
      "æŃ»": 1013,
      "ç¬¬äºĮ": 1014,
      "åı¦": 1015,
      "ç½®": 1016,
      "æ¬§": 1017,
      "æŁ¥": 1018,
      "30": 1019,
      "åĥ": 1020,
      "çĪ¶": 1021,
      "éĹ®": 1022,
      "çĮ": 1023,
      "è¶ħ": 1024,
      "æĭħ": 1025,
      "èĲ¥": 1026,
      "åŃĺ": 1027,
      "198": 1028,
      "é±": 1029,
      "åįļ": 1030,
      "å¥½": 1031,
      "å®¢": 1032,
      "æİ¨": 1033,
      "è§Ħ": 1034,
      "å®£": 1035,
      "é±¼": 1036,
      "ç»Ī": 1037,
      "Ġåľ¨": 1038,
      "çİĩ": 1039,
      "åħ¶ä»ĸ": 1040,
      "æĪĳ": 1041,
      "åĭĴ": 1042,
      "ä¼¦": 1043,
      "çĶ»": 1044,
      "ä¹Ŀ": 1045,
      "é¦Ĩ": 1046,
      "æĬ¤": 1047,
      "é¡¹": 1048,
      "æł·": 1049,
      "æ¹ĸ": 1050,
      "éĿĴ": 1051,
      "å½ķ": 1052,
      "åį«": 1053,
      "çıŃ": 1054,
      "æºĲ": 1055,
      "èİ·å¾Ĺ": 1056,
      "çĶ°": 1057,
      "æĬķ": 1058,
      "ä¾Ľ": 1059,
      "èİ±": 1060,
      "åħ·": 1061,
      "ä¹ĭåĲİ": 1062,
      "åĽłä¸º": 1063,
      "è¯º": 1064,
      "åħ´": 1065,
      "åĽ½éĻħ": 1066,
      "ä¼¯": 1067,
      "éĻĪ": 1068,
      "åĩĨ": 1069,
      "ä»£è¡¨": 1070,
      "çĶµå½±": 1071,
      "æ²Ļ": 1072,
      "çİ¯": 1073,
      "æ¯į": 1074,
      "13": 1075,
      "åĽłæŃ¤": 1076,
      "çĻ¾": 1077,
      "åį°": 1078,
      "çĶ·": 1079,
      "æµİ": 1080,
      "èħ": 1081,
      "è¾¹": 1082,
      "æ±Ĥ": 1083,
      "al": 1084,
      "éĤ£": 1085,
      "é²ģ": 1086,
      "çģ«": 1087,
      "è´Ł": 1088,
      "çª": 1089,
      "é¥": 1090,
      "æ¡Ī": 1091,
      "æķħ": 1092,
      "éº": 1093,
      "è¯ķ": 1094,
      "è¿ĲåĬ¨": 1095,
      "æĶ»": 1096,
      "è´£": 1097,
      "ä¾ĭ": 1098,
      "èĪª": 1099,
      "å·±": 1100,
      "çļĩ": 1101,
      "åĦ¿": 1102,
      "èĲ½": 1103,
      "çĥŃ": 1104,
      "ä¼Ĺ": 1105,
      "åĬ©": 1106,
      "å¤ĩ": 1107,
      "æŀģ": 1108,
      "èĩ´": 1109,
      "æīĺ": 1110,
      "ä»½": 1111,
      "æĬĢ": 1112,
      "å½ĵæĹ¶": 1113,
      "å¿Ĺ": 1114,
      "æĹ©": 1115,
      "ä¸Ńåįİ": 1116,
      "èīº": 1117,
      "çº¢": 1118,
      "æĶ¿æ²»": 1119,
      "å·Ŀ": 1120,
      "çĶµè§Ĩ": 1121,
      "çĻ»": 1122,
      "å¢ŀ": 1123,
      "ç³»ç»Ł": 1124,
      "ç¾¤": 1125,
      "æķ´": 1126,
      "å®¹": 1127,
      "åłĤ": 1128,
      "å·¥ä½ľ": 1129,
      "åī¯": 1130,
      "æ¨¡": 1131,
      "åĿĩ": 1132,
      "åįĬ": 1133,
      "åįĩ": 1134,
      "æ°ı": 1135,
      "ĠS": 1136,
      "ä¸ĥ": 1137,
      "åĲĮæĹ¶": 1138,
      "ä¸Ńå¿ĥ": 1139,
      "å¡ŀ": 1140,
      "é£ŀ": 1141,
      "è¶Ĭ": 1142,
      "åĽ´": 1143,
      "å±Ĥ": 1144,
      "åıĮ": 1145,
      "ä½ľä¸º": 1146,
      "ç»§": 1147,
      "ä¹ĭä¸Ģ": 1148,
      "èĩªå·±": 1149,
      "ç¢": 1150,
      "çħ": 1151,
      "æĺĵ": 1152,
      "é£Ł": 1153,
      "å¤±": 1154,
      "é»ĳ": 1155,
      "åĳĬ": 1156,
      "ä¸ŃçļĦ": 1157,
      "é¸": 1158,
      "åĨĻ": 1159,
      "æ·±": 1160,
      "èĭ±åĽ½": 1161,
      "ä»ĸçļĦ": 1162,
      "è¯Ħ": 1163,
      "å¢ĥ": 1164,
      "çĭ¬": 1165,
      "å¥ĩ": 1166,
      "å®¤": 1167,
      "es": 1168,
      "åıĳå±ķ": 1169,
      "çĶ²": 1170,
      "å°Ħ": 1171,
      "åŃ¦éĻ¢": 1172,
      "æİĴ": 1173,
      "è¯ģ": 1174,
      "æ£®": 1175,
      "éĻĲ": 1176,
      "ic": 1177,
      "çŃĳ": 1178,
      "éľĢ": 1179,
      "å£°": 1180,
      "æľ¨": 1181,
      "æĹ¶éĹ´": 1182,
      "çľŁ": 1183,
      "è´¹": 1184,
      "æĭħä»»": 1185,
      "Ġ200": 1186,
      "èĢģ": 1187,
      "åı¯èĥ½": 1188,
      "æ½": 1189,
      "è±¡": 1190,
      "å¤®": 1191,
      "åĥı": 1192,
      "25": 1193,
      "ç»ĩ": 1194,
      "æĪĲç«ĭ": 1195,
      "å±ŀäºİ": 1196,
      "éŃ": 1197,
      "åĮ»": 1198,
      "ä½ķ": 1199,
      "ä¸įåĲĮ": 1200,
      "å§Ĩ": 1201,
      "åįł": 1202,
      "åĵį": 1203,
      "è´Ŀ": 1204,
      "éĩĩ": 1205,
      "æ´ĭ": 1206,
      "æīį": 1207,
      "åŁĥ": 1208,
      "æĿĢ": 1209,
      "è®©": 1210,
      "æĤ": 1211,
      "ä¹Į": 1212,
      "çīĻ": 1213,
      "ä»į": 1214,
      "ï¼Īï¼īï¼Į": 1215,
      "ï¼īãĢģ": 1216,
      "çĽŁ": 1217,
      "æŃ¥": 1218,
      "åĪĺ": 1219,
      "ç§°ä¸º": 1220,
      "èĪ°": 1221,
      "æ¤": 1222,
      "ä¾¿": 1223,
      "å¸Ń": 1224,
      "æĸ½": 1225,
      "èĢĥ": 1226,
      "åĺ": 1227,
      "è®¾è®¡": 1228,
      "é¡¿": 1229,
      "åıĳçİ°": 1230,
      "åĵ¥": 1231,
      "æĥ³": 1232,
      "æ¡¥": 1233,
      "æ¥¼": 1234,
      "æħ": 1235,
      "ä¸Ńå¤®": 1236,
      "æ³°": 1237,
      "ĠC": 1238,
      "æ¾": 1239,
      "ãĢįï¼Į": 1240,
      "åºĵ": 1241,
      "æĦŁ": 1242,
      "æģ©": 1243,
      "éħį": 1244,
      "éĺ²": 1245,
      "æ³ķåĽ½": 1246,
      "æ¸¸æĪı": 1247,
      "è¿ª": 1248,
      "éĢļè¿ĩ": 1249,
      "è¡ĮæĶ¿": 1250,
      "ä½İ": 1251,
      "æĽ¼": 1252,
      "å²ģ": 1253,
      "è¿Ļä¸ª": 1254,
      "å³": 1255,
      "åĨľ": 1256,
      "å±Ĭ": 1257,
      "197": 1258,
      "ä½ı": 1259,
      "èĮĥ": 1260,
      "å¾ĭ": 1261,
      "æķĪ": 1262,
      "èĴĻ": 1263,
      "çķĻ": 1264,
      "âĢĶ": 1265,
      "æŃ¢": 1266,
      "éĵģè·¯": 1267,
      "åįĥ": 1268,
      "at": 1269,
      "ä½Ľ": 1270,
      "ç¤¾ä¼ļ": 1271,
      "åĩł": 1272,
      "äºĳ": 1273,
      "éĵ¶": 1274,
      "æĬĬ": 1275,
      "èŃ": 1276,
      "åºķ": 1277,
      "194": 1278,
      "çĹħ": 1279,
      "å®ģ": 1280,
      "åĨł": 1281,
      "è¾ĳ": 1282,
      "50": 1283,
      "æĸĻ": 1284,
      "âĢĿãĢĤ": 1285,
      "is": 1286,
      "æ¦": 1287,
      "ç´¢": 1288,
      "æĻ¯": 1289,
      "æ¶Ī": 1290,
      "for": 1291,
      "å»ºçŃĳ": 1292,
      "éŁ³ä¹Ĳ": 1293,
      "èŃ¦": 1294,
      "çĬ¶": 1295,
      "è¿ĻäºĽ": 1296,
      "è¯Ŀ": 1297,
      "ä¿Ħ": 1298,
      "åº·": 1299,
      "èĥľ": 1300,
      "åıĤåĬł": 1301,
      "å¯Ł": 1302,
      "åħ±åĴĮ": 1303,
      "éĻį": 1304,
      "ç¥ĸ": 1305,
      "ç´ł": 1306,
      "çľĭ": 1307,
      "æģ¯": 1308,
      "æµĭ": 1309,
      "åĶ±": 1310,
      "ä»ħ": 1311,
      "é½": 1312,
      "ç§»": 1313,
      "å§Ķåĳĺä¼ļ": 1314,
      "è¡¨ç¤º": 1315,
      "è´Łè´£": 1316,
      "æ¸©": 1317,
      "éĿ©": 1318,
      "æī¹": 1319,
      "æĸĩåĮĸ": 1320,
      "çĿĢ": 1321,
      "le": 1322,
      "åİĨåı²": 1323,
      "æĺ¾": 1324,
      "å´": 1325,
      "å¿µ": 1326,
      "åı¶": 1327,
      "è´¥": 1328,
      "å¹²": 1329,
      "ç®Ĺ": 1330,
      "åĩºçİ°": 1331,
      "å¹´çļĦ": 1332,
      "21": 1333,
      "ç»Ħç»ĩ": 1334,
      "å©": 1335,
      "å¹´ä»£": 1336,
      "æī¿": 1337,
      "åħ¸": 1338,
      "å¸Ĥéķĩ": 1339,
      "åįķä½į": 1340,
      "æİ§": 1341,
      "èĹı": 1342,
      "mu": 1343,
      "ä¸ĸçºª": 1344,
      "ĠM": 1345,
      "è½¦ç«Ļ": 1346,
      "è¡ĮæĺŁ": 1347,
      "éŁ©": 1348,
      "24": 1349,
      "æİĪ": 1350,
      "è¯į": 1351,
      "è¿ľ": 1352,
      "åŃ¦æł¡": 1353,
      "æĢĿ": 1354,
      "ä¸»ä¹ī": 1355,
      "å¼¹": 1356,
      "ãĢįãĢĤ": 1357,
      "ç¥¨": 1358,
      "ä¸ĬçļĦ": 1359,
      "èĽ": 1360,
      "åĲİæĿ¥": 1361,
      "è½½": 1362,
      "he": 1363,
      "ç»ıæµİ": 1364,
      "æĪ·": 1365,
      "ç®¡çĲĨ": 1366,
      "åıĭ": 1367,
      "ä¹ł": 1368,
      "çĳŀ": 1369,
      "æ¯Ľ": 1370,
      "æł¹æį®": 1371,
      "å®Ī": 1372,
      "å¤ı": 1373,
      "åĪ©äºļ": 1374,
      "é¹": 1375,
      "åģļ": 1376,
      "196": 1377,
      "ç¡®": 1378,
      "ä½Ļ": 1379,
      "ç²¾": 1380,
      "å®«": 1381,
      "é³": 1382,
      "æĢģ": 1383,
      "èįī": 1384,
      "æľĢåĲİ": 1385,
      "æīĢæľī": 1386,
      "å½±åĵį": 1387,
      "æ»¡": 1388,
      "æľŁéĹ´": 1389,
      "æŃ£å¼ı": 1390,
      "çĿ£": 1391,
      "è®¡åĪĴ": 1392,
      "æľĽ": 1393,
      "æıĲä¾Ľ": 1394,
      "23": 1395,
      "åĮĹäº¬": 1396,
      "âĢĿï¼Į": 1397,
      "éĻĦ": 1398,
      "ä¾Ŀ": 1399,
      "åħ±åĴĮåĽ½": 1400,
      "ä¹Łæĺ¯": 1401,
      "è¶³çĲĥ": 1402,
      "æĪ¿": 1403,
      "å¾ģ": 1404,
      "çħ§": 1405,
      "ä»·": 1406,
      "é¢Ħ": 1407,
      "ç«ł": 1408,
      "åıĳçĶŁ": 1409,
      "ä½ľåĵģ": 1410,
      "æ³¨": 1411,
      "å¾·åĽ½": 1412,
      "ĠA": 1413,
      "è¿°": 1414,
      "ä¸ĭè¾ĸ": 1415,
      "å·²ç»ı": 1416,
      "æ¢ħ": 1417,
      "æĲ": 1418,
      "æĭĶ": 1419,
      "è®¸å¤ļ": 1420,
      "æ°¸": 1421,
      "å¤§çļĦ": 1422,
      "åŁİå¸Ĥ": 1423,
      "ä¸½": 1424,
      "æĹ¶æľŁ": 1425,
      "æĵ": 1426,
      "ä¸¹": 1427,
      "000": 1428,
      "æĬĹ": 1429,
      "è¯·": 1430,
      "å¯Į": 1431,
      "ä¸ĢäºĽ": 1432,
      "æī§": 1433,
      "28": 1434,
      "ä¹ĭéĹ´": 1435,
      "åł¡": 1436,
      "ä¸ģ": 1437,
      "åİĭ": 1438,
      "åį´": 1439,
      "èİ«": 1440,
      "mula": 1441,
      "æ¾³": 1442,
      "åĶĲ": 1443,
      "èĻ½": 1444,
      "ç®Ģ": 1445,
      "formula": 1446,
      "åħ¨åĽ½": 1447,
      "åĿ¦": 1448,
      "ãĢĭï¼Į": 1449,
      "çļ®": 1450,
      "åģľ": 1451,
      "ç¬¬ä¸ī": 1452,
      "æ´»åĬ¨": 1453,
      "å°¼äºļ": 1454,
      "èĴĤ": 1455,
      "å°ģ": 1456,
      "éĢĢ": 1457,
      "å·¦": 1458,
      "å®Ŀ": 1459,
      "éļĨ": 1460,
      "æĸĹ": 1461,
      "26": 1462,
      "çĨ": 1463,
      "èĪ¬": 1464,
      "ä»¥ä¸ĭ": 1465,
      "æķĻèĤ²": 1466,
      "æ¯ĶèµĽ": 1467,
      "å¯º": 1468,
      "çĽ®åīį": 1469,
      "åºĦ": 1470,
      "ro": 1471,
      "çīĮ": 1472,
      "æĭ¿": 1473,
      "åĢ¼": 1474,
      "it": 1475,
      "äººçļĦ": 1476,
      "éªĮ": 1477,
      "éĹ®é¢ĺ": 1478,
      "å¿«": 1479,
      "éĤ¦": 1480,
      "èĪ¹": 1481,
      "re": 1482,
      "éĥ¡": 1483,
      "27": 1484,
      "åĬ¿": 1485,
      "åĢĻ": 1486,
      "åºĨ": 1487,
      "ä¾§": 1488,
      "195": 1489,
      "çł´": 1490,
      "ĠãĢĬ": 1491,
      "ãģ": 1492,
      "ä¸Ĭæµ·": 1493,
      "å°ıè¡ĮæĺŁ": 1494,
      "æ°ĳåĽ½": 1495,
      "æľįåĬ¡": 1496,
      "ä½Ĩæĺ¯": 1497,
      "éļ¾": 1498,
      "è¿Ľåħ¥": 1499,
      "æ¤į": 1500,
      "ç»Ĩ": 1501,
      "åİĤ": 1502,
      "åĲ«": 1503,
      "çªģ": 1504,
      "æĸŃ": 1505,
      "æľĹ": 1506,
      "ä¼¼": 1507,
      "è¯Ĩ": 1508,
      "é¼": 1509,
      "ç¤¼": 1510,
      "22": 1511,
      "å°ļ": 1512,
      "çĽĳ": 1513,
      "éĹ»": 1514,
      "åĺī": 1515,
      "åĲįä¸º": 1516,
      "åĪĩ": 1517,
      "å¿ħ": 1518,
      "æĹħ": 1519,
      "åĨµ": 1520,
      "æĿ°": 1521,
      "ãĢģãĢĬ": 1522,
      "am": 1523,
      "éº¦": 1524,
      "æĪĲåĳĺ": 1525,
      "å¼Ĺ": 1526,
      "éĩįè¦ģ": 1527,
      "èµ°": 1528,
      "ä¹ħ": 1529,
      "èĵ": 1530,
      "å¯Ĩåº¦": 1531,
      "ä¸¤ä¸ª": 1532,
      "åºĹ": 1533,
      "å²¸": 1534,
      "åĪĨå¸ĥ": 1535,
      "æĪĺäºī": 1536,
      "çĶŁæ´»": 1537,
      "æĭ¥": 1538,
      "ĠP": 1539,
      "éĩİ": 1540,
      "è¯»": 1541,
      "å»¶": 1542,
      "ç»Ŀ": 1543,
      "æĿ¾": 1544,
      "å·¥ç¨ĭ": 1545,
      "æĺ¥": 1546,
      "äººçī©": 1547,
      "èĢ¶": 1548,
      "èī¾": 1549,
      "åı³": 1550,
      "ĠB": 1551,
      "æ¯ķ": 1552,
      "ä¸ºäºĨ": 1553,
      "æľĢç»Ī": 1554,
      "æĹ§": 1555,
      "æĿ¨": 1556,
      "å¸ķ": 1557,
      "ç½Ĺæĸ¯": 1558,
      "åħ³ç³»": 1559,
      "åİħ": 1560,
      "ãĥ": 1561,
      "è½®": 1562,
      "æł¸": 1563,
      "el": 1564,
      "æŀ¶": 1565,
      "æį¢": 1566,
      "å¼Ł": 1567,
      "ä¸´": 1568,
      "ĠT": 1569,
      "æĸ¹éĿ¢": 1570,
      "èĬĤçĽ®": 1571,
      "æ²¹": 1572,
      "èģĶåĲĪ": 1573,
      "29": 1574,
      "ä¼ĺ": 1575,
      "èµ«": 1576,
      "åıĳè¡Į": 1577,
      "åĶ®": 1578,
      "ol": 1579,
      "äº¡": 1580,
      "åĲ´": 1581,
      "ä½³": 1582,
      "åĪ°äºĨ": 1583,
      "ç¯": 1584,
      "ä¸¥": 1585,
      "2009": 1586,
      "éģĹ": 1587,
      "æŀª": 1588,
      "il": 1589,
      "éĽĦ": 1590,
      "å½Ĵ": 1591,
      "åŃ¦çĶŁ": 1592,
      "çŁŃ": 1593,
      "193": 1594,
      "å¼Ĥ": 1595,
      "æĬĢæľ¯": 1596,
      "åŃĻ": 1597,
      "åĨ³å®ļ": 1598,
      "å¹¶ä¸Ķ": 1599,
      "åĪ¶ä½ľ": 1600,
      "åĪ¤": 1601,
      "çģµ": 1602,
      "æĶ¯æĮģ": 1603,
      "ou": 1604,
      "ion": 1605,
      "çłģ": 1606,
      "æµ·æĭĶ": 1607,
      "ç«¯": 1608,
      "èŀ": 1609,
      "èĤ¡": 1610,
      "zh": 1611,
      "èĻ½çĦ¶": 1612,
      "åŃ¦åĲį": 1613,
      "åŃ¦å®¶": 1614,
      "èı²": 1615,
      "ä»Ģ": 1616,
      "ä¼¤": 1617,
      "as": 1618,
      "åĪĨåĪ«": 1619,
      "ä¸¾è¡Į": 1620,
      "åĬłåħ¥": 1621,
      "æĳ©": 1622,
      "ĠH": 1623,
      "æ¬§æ´²": 1624,
      "ä¸ĢèĪ¬": 1625,
      "åį°åº¦": 1626,
      "åĨłåĨĽ": 1627,
      "äººåı£å¯Ĩåº¦": 1628,
      "çŃĸ": 1629,
      "ãĢĭãĢģãĢĬ": 1630,
      "å¤§éĻĨ": 1631,
      "ç³»åĪĹ": 1632,
      "äºĭä»¶": 1633,
      "éģŃ": 1634,
      "åıĤä¸İ": 1635,
      "åį¢": 1636,
      "ç»ĥ": 1637,
      "æłĳ": 1638,
      "ä¸ĵè¾ĳ": 1639,
      "é½Ĳ": 1640,
      "æĹĹ": 1641,
      "é¡º": 1642,
      "ä¿ĿæĬ¤": 1643,
      "æ³½": 1644,
      "æ²ĥ": 1645,
      "éĢĲ": 1646,
      "å½¹": 1647,
      "éĽħ": 1648,
      "éľĢè¦ģ": 1649,
      "40": 1650,
      "åľ°æĸ¹": 1651,
      "è½»": 1652,
      "åºı": 1653,
      "ä¸»æķĻ": 1654,
      "é¡»": 1655,
      "2010": 1656,
      "åĮĹéĥ¨": 1657,
      "èĭ¥": 1658,
      "æĸ¯çī¹": 1659,
      "å®ĭ": 1660,
      "è·Ŀ": 1661,
      "éħĴ": 1662,
      "çİĽ": 1663,
      "çļĦäºº": 1664,
      "ï¼Īï¼Į": 1665,
      "èĥ¡": 1666,
      "å»ºç«ĭ": 1667,
      "ï¼ļï¼ī": 1668,
      "åĲĮå¹´": 1669,
      "æĭ¥æľī": 1670,
      "æĺ¯åľ¨": 1671,
      "ac": 1672,
      "ç±į": 1673,
      "éĢģ": 1674,
      "åįĹéĥ¨": 1675,
      "æĻļ": 1676,
      "éĴŁ": 1677,
      "èģĶèµĽ": 1678,
      "ä¹ĺ": 1679,
      "é«ĺåº¦": 1680,
      "å¾®": 1681,
      "2011": 1682,
      "æļ´": 1683,
      "ä¼ļè®®": 1684,
      "æĿĤ": 1685,
      "éĶĢ": 1686,
      "æľĢé«ĺ": 1687,
      "æľ«": 1688,
      "ç§Ģ": 1689,
      "æĿŁ": 1690,
      "éĺµ": 1691,
      "èī¯": 1692,
      "å°¾": 1693,
      "ä¾ĭå¦Ĥ": 1694,
      "è¯Ĺ": 1695,
      "æĿľ": 1696,
      "è¾ĵ": 1697,
      "-{": 1698,
      "}-": 1699,
      "æĳĦ": 1700,
      "ç»ĦæĪĲ": 1701,
      "åĨ²": 1702,
      "ä½įäºİè¯¥": 1703,
      "æĺ¯ä¸Ģä¸ª": 1704,
      "çĽĸ": 1705,
      "ç£": 1706,
      "åĤ": 1707,
      "åĽ½æ°ĳ": 1708,
      "å³°": 1709,
      "æĪĲåĬŁ": 1710,
      "éŁ¦": 1711,
      "èĩªçĶ±": 1712,
      "ä¸°": 1713,
      "æĢ»éĿ¢ç§¯": 1714,
      "åĬ³": 1715,
      "è¯ĳ": 1716,
      "èį£": 1717,
      "å®ĮæĪĲ": 1718,
      "Ġt": 1719,
      "æ´¥": 1720,
      "çĭ¬ç«ĭ": 1721,
      "çķ¥": 1722,
      "è¡Ģ": 1723,
      "åħ¼": 1724,
      "60": 1725,
      "éĺ¶": 1726,
      "2001": 1727,
      "å°±æĺ¯": 1728,
      "äº¿": 1729,
      "ãĤ": 1730,
      "å®£å¸ĥ": 1731,
      "èį¯": 1732,
      "åºŃ": 1733,
      "åª": 1734,
      "æīĢä»¥": 1735,
      "åĸĦ": 1736,
      "ç½²": 1737,
      "åħ¹": 1738,
      "é¢ĳ": 1739,
      "ĠL": 1740,
      "é©»": 1741,
      "æĸ¹å¼ı": 1742,
      "è´µ": 1743,
      "æ¿": 1744,
      "æ¬¾": 1745,
      "æľīä¸Ģ": 1746,
      "çĲĥéĺŁ": 1747,
      "æľ±": 1748,
      "å¯¹äºİ": 1749,
      "åıĹåĪ°": 1750,
      "åĲ¯": 1751,
      "çº½": 1752,
      "ç®¡è¾ĸ": 1753,
      "é¥°": 1754,
      "éĢļå¸¸": 1755,
      "æķ£": 1756,
      "äººæ°ĳåħ±åĴĮåĽ½": 1757,
      "åŃĺåľ¨": 1758,
      "çĶļ": 1759,
      "è¦ģæ±Ĥ": 1760,
      "åģĩ": 1761,
      "å¼Ģåıĳ": 1762,
      "éĽĨåĽ¢": 1763,
      "å©ļ": 1764,
      "æĢ»ç»Ł": 1765,
      "èīºæľ¯": 1766,
      "åħį": 1767,
      "åĸľ": 1768,
      "é¡¶": 1769,
      "é²ľ": 1770,
      "èľ": 1771,
      "æĭį": 1772,
      "åĪĹè½¦": 1773,
      "å°½": 1774,
      "å·®": 1775,
      "åĩºçīĪ": 1776,
      "äº§çĶŁ": 1777,
      "è°·": 1778,
      "çļĦå¤§": 1779,
      "èĩ£": 1780,
      "æĿ¯": 1781,
      "æĿ¿": 1782,
      "çĶŁäº§": 1783,
      "çĩ": 1784,
      "çŃ¾": 1785,
      "æĻĭ": 1786,
      "äºĮåįģ": 1787,
      "äºĨä¸Ģ": 1788,
      "æ¯ķä¸ļ": 1789,
      "åĩ¯": 1790,
      "us": 1791,
      "äºĪ": 1792,
      "et": 1793,
      "è¿ģ": 1794,
      "åĩı": 1795,
      "åı¦å¤ĸ": 1796,
      "ä»ģ": 1797,
      "çļĦæĺ¯": 1798,
      "çļĦä¸Ģä¸ªå¸Ĥéķĩ": 1799,
      "è¿Ļç§į": 1800,
      "æĿ¥èĩª": 1801,
      "çĥĪ": 1802,
      "çī¹åĪ«": 1803,
      "ä¸įè¿ĩ": 1804,
      "è¿½": 1805,
      "è´¢": 1806,
      "å®¾": 1807,
      "om": 1808,
      "çİī": 1809,
      "è°¢": 1810,
      "ing": 1811,
      "å½¢æĪĲ": 1812,
      "çĪ¶äº²": 1813,
      "éħ¸": 1814,
      "80": 1815,
      "ĠG": 1816,
      "èĥĮ": 1817,
      "ï¼į": 1818,
      "å»·": 1819,
      "çīĽ": 1820,
      "æ¢ģ": 1821,
      "31": 1822,
      "æĥħåĨµ": 1823,
      "è´Ń": 1824,
      "çĽĽ": 1825,
      "çĦ¶èĢĮ": 1826,
      "æĹ¶ä»£": 1827,
      "ç§ĺ": 1828,
      "ĠR": 1829,
      "ä¸Ńåįİäººæ°ĳåħ±åĴĮåĽ½": 1830,
      "éĩĩçĶ¨": 1831,
      "é»İ": 1832,
      "èĪªç©º": 1833,
      "åħ»": 1834,
      "æĹ¶çļĦ": 1835,
      "æıĲåĩº": 1836,
      "åıĺåĮĸ": 1837,
      "æ¤įçī©": 1838,
      "åīįå¾Ģ": 1839,
      "èĪŀ": 1840,
      "çĪĨ": 1841,
      "å®³": 1842,
      "çİ°åľ¨": 1843,
      "ch": 1844,
      "ter": 1845,
      "éĻ©": 1846,
      "åĿĢ": 1847,
      "ä¼ģ": 1848,
      "æĺĮ": 1849,
      "æ²¿": 1850,
      "ä¸Ńåħ±": 1851,
      "ĠD": 1852,
      "ãĢĭãĢĤ": 1853,
      "éĩĬ": 1854,
      "äºĴ": 1855,
      "å¤º": 1856,
      "æ¸Ĳ": 1857,
      "è¿Ļä¸Ģ": 1858,
      "ãĢĭï¼Ī": 1859,
      "è®Ń": 1860,
      "å½ĵåľ°": 1861,
      "è®¯": 1862,
      "æľºåľº": 1863,
      "ç½Ĺé©¬": 1864,
      "ä»ĸåľ¨": 1865,
      "æķĳ": 1866,
      "åľĨ": 1867,
      "çĶŁäºİ": 1868,
      "èĶ": 1869,
      "æºª": 1870,
      "å¾ĹåĪ°": 1871,
      "çĶ¨äºİ": 1872,
      "è´§": 1873,
      "ç½ª": 1874,
      "æ°ĳä¸»": 1875,
      "åªĴ": 1876,
      "æı´": 1877,
      "è½¨": 1878,
      "æİ§åĪ¶": 1879,
      "å¹´äººåı£": 1880,
      "2008": 1881,
      "åħ·æľī": 1882,
      "ä»ĭ": 1883,
      "2012": 1884,
      "åºĻ": 1885,
      "è¿Ľå£«": 1886,
      "åĲĽ": 1887,
      "è½¯": 1888,
      "å¯¼èĩ´": 1889,
      "åĲĪä½ľ": 1890,
      "å±ĭ": 1891,
      "éĢīä¸¾": 1892,
      "æ£Ģ": 1893,
      "ä¸Ģç§į": 1894,
      "è¡Ĺéģĵ": 1895,
      "è¥¿äºļ": 1896,
      "ä¹Ķ": 1897,
      "åĿ¡": 1898,
      "è¯Ńè¨Ģ": 1899,
      "å°º": 1900,
      "åĬ¨çī©": 1901,
      "ä¿Ħç½Ĺæĸ¯": 1902,
      "è¡¥": 1903,
      "èĸ": 1904,
      "åıªæľī": 1905,
      "å¥³æĢ§": 1906,
      "åĲįçļĦ": 1907,
      "å¤Ł": 1908,
      "å®¡": 1909,
      "éĢı": 1910,
      "Ġå¤§": 1911,
      "éĻ¤äºĨ": 1912,
      "ä»ª": 1913,
      "éĢłæĪĲ": 1914,
      "æĺł": 1915,
      "å¸ģ": 1916,
      "åĨ°": 1917,
      "è¥¿çıŃ": 1918,
      "ç»ĵæĿŁ": 1919,
      "æµ·åĨĽ": 1920,
      "±ä¹Ĳ": 1921,
      "éĿ©åĳ½": 1922,
      "è¥¿çıŃçīĻ": 1923,
      "ç§ĳåŃ¦": 1924,
      "2013": 1925,
      "æĻº": 1926,
      "èį·": 1927,
      "èģĶçĽŁ": 1928,
      "æľīéĻĲ": 1929,
      "åıĸå¾Ĺ": 1930,
      "Ġéĺ¿": 1931,
      "ĠF": 1932,
      "éľį": 1933,
      "æĿ¥çļĦ": 1934,
      "æĹłæ³ķ": 1935,
      "æī©": 1936,
      "æĮ¥": 1937,
      "å·¨": 1938,
      "è®²": 1939,
      "ä¸»å¸Ń": 1940,
      "ä½įäºİè¯¥åĽ½": 1941,
      "ç©Ĩ": 1942,
      "70": 1943,
      "æĿĲ": 1944,
      "éĥĳ": 1945,
      "äº¤éĢļ": 1946,
      "ï¼ļâĢľ": 1947,
      "ä½©": 1948,
      "åı°åĮĹ": 1949,
      "ç»ıè¿ĩ": 1950,
      "æŃ¤å¤ĸ": 1951,
      "è¶ħè¿ĩ": 1952,
      "æķ¦": 1953,
      "éĥİ": 1954,
      "è®¿": 1955,
      "æİ¥åıĹ": 1956,
      "ç»§ç»Ń": 1957,
      "æĮī": 1958,
      "2007": 1959,
      "æĸ°éĹ»": 1960,
      "å¾Ĵ": 1961,
      "ç¿°": 1962,
      "éŁ©åĽ½": 1963,
      "ä¸ĢçĽ´": 1964,
      "ãĢĤâĢĿ": 1965,
      "æķħäºĭ": 1966,
      "and": 1967,
      "å¤§åĪ©": 1968,
      "ä¸Ńåįİæ°ĳåĽ½": 1969,
      "ä¼łç»Ł": 1970,
      "é¢Ĺ": 1971,
      "èĵĿ": 1972,
      "100": 1973,
      "æĭľ": 1974,
      "ä»»ä½ķ": 1975,
      "éĢĤ": 1976,
      "äººåĳĺ": 1977,
      "è§Ĵèī²": 1978,
      "éĶ¦": 1979,
      "ç«¥": 1980,
      "éļ¶": 1981,
      "å¦Ĥæŀľ": 1982,
      "æĪĪ": 1983,
      "å·¡": 1984,
      "çĽĬ": 1985,
      "æķĮ": 1986,
      "æĺ¯çĶ±": 1987,
      "é¢Ĩå¯¼": 1988,
      "èĩªå·±çļĦ": 1989,
      "çİ©": 1990,
      "å¸ĿåĽ½": 1991,
      "å®½": 1992,
      "å¾Ħ": 1993,
      "åħ¬åĽŃ": 1994,
      "2014": 1995,
      "åįģäºĮ": 1996,
      "èµµ": 1997,
      "id": 1998,
      "æ··": 1999,
      "æİ¢": 2000,
      "å·¥ä¸ļ": 2001,
      "å¤ľ": 2002,
      "è¾Ĩ": 2003,
      "å²©": 2004,
      "é¦ĸæ¬¡": 2005,
      "å¢ŀåĬł": 2006,
      "çľ¼": 2007,
      "35": 2008,
      "è¯¸": 2009,
      "åĪº": 2010,
      "æĹĭ": 2011,
      "un": 2012,
      "éĥ¨éĺŁ": 2013,
      "2006": 2014,
      "æŃĮæĽ²": 2015,
      "éĢĶ": 2016,
      "ç»ĵæŀĦ": 2017,
      "æŁĲ": 2018,
      "ç¦ģ": 2019,
      "å»ºäºİ": 2020,
      "éĿŀå¸¸": 2021,
      "ow": 2022,
      "éĻĦè¿ĳ": 2023,
      "å¹¶åľ¨": 2024,
      "ç»ĵæŀľ": 2025,
      "çĽ¸åħ³": 2026,
      "ĠI": 2027,
      "è§ī": 2028,
      "è®¨": 2029,
      "2016": 2030,
      "åĪĨå¸ĥäºİ": 2031,
      "æ®¿": 2032,
      "åħ¬è·¯": 2033,
      "åĪ»": 2034,
      "é¢Ŀ": 2035,
      "é¡¹çĽ®": 2036,
      "2015": 2037,
      "èĮ¨": 2038,
      "æľºæŀĦ": 2039,
      "ç¾½": 2040,
      "ä¸ŃåŃ¦": 2041,
      "Ġå°ıè¡ĮæĺŁ": 2042,
      "èĿ": 2043,
      "æĽ¿": 2044,
      "Ġ199": 2045,
      "çĮ®": 2046,
      "åĲ¸": 2047,
      "æłĩåĩĨ": 2048,
      "45": 2049,
      "åħ±äº§": 2050,
      "åŁ¹": 2051,
      "åĨĽäºĭ": 2052,
      "èĢ³": 2053,
      "ä½ł": 2054,
      "ä¹Łæľī": 2055,
      "æµ·æĭĶé«ĺåº¦": 2056,
      "éĥ½æĺ¯": 2057,
      "çļĨ": 2058,
      "ä¹ĭåīį": 2059,
      "æıı": 2060,
      "è·Ł": 2061,
      "åĪĬ": 2062,
      "éģĩ": 2063,
      "ç¬¦": 2064,
      "å±ħæ°ĳ": 2065,
      "å¹¶ä¸į": 2066,
      "å¸®": 2067,
      "çĪµ": 2068,
      "åĢŁ": 2069,
      "ä¹±": 2070,
      "æ´ª": 2071,
      "å®ĩ": 2072,
      "ç«ŀ": 2073,
      "ä¸ŃåĽ½å¤§éĻĨ": 2074,
      "éŃĶ": 2075,
      "è¿ĺæľī": 2076,
      "ad": 2077,
      "æ¬¢": 2078,
      "èģļ": 2079,
      "çĤ®": 2080,
      "èĩªæ²»": 2081,
      "ĠW": 2082,
      "æī¾": 2083,
      "åĨħçļĦ": 2084,
      "å°ıè¯´": 2085,
      "æĴ¤": 2086,
      "ä¸ªäºº": 2087,
      "æł¼åħ°": 2088,
      "åįĪ": 2089,
      "èĦĳ": 2090,
      "åĿĳ": 2091,
      "çĥŃå¸¦": 2092,
      "2000": 2093,
      "ä¼ĳ": 2094,
      "ç«¹": 2095,
      "ç§ģ": 2096,
      "çīĪæľ¬": 2097,
      "åħħ": 2098,
      "90": 2099,
      "èĤ¯": 2100,
      "åĽº": 2101,
      "æ¼«": 2102,
      "st": 2103,
      "åĪĹè¡¨": 2104,
      "éĽª": 2105,
      "è¿ĩç¨ĭ": 2106,
      "æĪĳä»¬": 2107,
      "ig": 2108,
      "2005": 2109,
      "æ¡ĳ": 2110,
      "å¥ī": 2111,
      "éĤ»": 2112,
      "è¡ĮåĬ¨": 2113,
      "çİ°ä»£": 2114,
      "æ¯Ĵ": 2115,
      "è¢Ń": 2116,
      "éĽ¨": 2117,
      "å¿ł": 2118,
      "å¹ķ": 2119,
      "éª¨": 2120,
      "ĠN": 2121,
      "åĶ¯": 2122,
      "æĢ»äººåı£": 2123,
      "åıĳè¡¨": 2124,
      "è¿Ķ": 2125,
      "ä¸Ŀ": 2126,
      "æ¼Ķåĳĺ": 2127,
      "èķ": 2128,
      "åĪĨä¸º": 2129,
      "æģĴ": 2130,
      "è´Łè´£ç®¡è¾ĸ": 2131,
      "è®¾æľī": 2132,
      "çĶµåŃĲ": 2133,
      "åĨħå®¹": 2134,
      "å°ĨåĨĽ": 2135,
      "èµ¤": 2136,
      "åį·": 2137,
      "èµŀ": 2138,
      "éĢĥ": 2139,
      "åĩºçļĦ": 2140,
      "å¨ľ": 2141,
      "éĴ±": 2142,
      "ur": 2143,
      "ç»ľ": 2144,
      "åĲ¦": 2145,
      "åĿĲ": 2146,
      "æĵį": 2147,
      "éĩįæĸ°": 2148,
      "48": 2149,
      "åºŁ": 2150,
      "æĸ¹æ³ķ": 2151,
      "çĽĺ": 2152,
      "æĢĢ": 2153,
      "æ¿Ģ": 2154,
      "ç»¿": 2155,
      "éľĩ": 2156,
      "çºªå¿µ": 2157,
      "çĶļèĩ³": 2158,
      "æ°ĳæĹı": 2159,
      "å¾Ĳ": 2160,
      "éĿł": 2161,
      "ĠE": 2162,
      "æľīåħ³": 2163,
      "åı¬": 2164,
      "æľĿé²ľ": 2165,
      "Ġ\"": 2166,
      "å«": 2167,
      "æĭ©": 2168,
      "èĭıèģĶ": 2169,
      "æĶ¹ä¸º": 2170,
      "å°¤": 2171,
      "å¹´èĩ³": 2172,
      "æłĸ": 2173,
      "å®ª": 2174,
      "æ±ĩ": 2175,
      "åĮºåŁŁ": 2176,
      "å¤§éĩı": 2177,
      "çĽ´æİ¥": 2178,
      "ä¹İ": 2179,
      "éľ²": 2180,
      "ç¼º": 2181,
      "ç©¿": 2182,
      "ä¸ºä¸»": 2183,
      "å¾¡": 2184,
      "æĸ°çļĦ": 2185,
      "æįķ": 2186,
      "äºļæ´²": 2187,
      "æīİ": 2188,
      "çĸĹ": 2189,
      "è´¡": 2190,
      "åĪĳ": 2191,
      "è·Ŀç¦»": 2192,
      "çģŃ": 2193,
      "å¤ªéĺ³": 2194,
      "èĮĥåĽ´": 2195,
      "ä¹Ī": 2196,
      "åıįå¯¹": 2197,
      "åĲİçļĦ": 2198,
      "éķľ": 2199,
      "ä¸ľåĮĹ": 2200,
      "å®Įåħ¨": 2201,
      "çĬ¯": 2202,
      "å¤ĦçĲĨ": 2203,
      "æľĢä½³": 2204,
      "å¹³åĿĩ": 2205,
      "åĨĽéĺŁ": 2206,
      "åı¦ä¸Ģ": 2207,
      "éªĳ": 2208,
      "åħĭæĸ¯": 2209,
      "æĪĺæĸĹ": 2210,
      "åĲįç§°": 2211,
      "çĶŁçī©": 2212,
      "åĪļ": 2213,
      "å¿ħé¡»": 2214,
      "éĻµ": 2215,
      "é³į": 2216,
      "å§ĵ": 2217,
      "åħĦ": 2218,
      "ä¹¦è®°": 2219,
      "çľģçļĦä¸Ģä¸ªå¸Ĥéķĩ": 2220,
      "è¯ī": 2221,
      "æķĻæİĪ": 2222,
      "ç¬¬åĽĽ": 2223,
      "æŁı": 2224,
      "é¡¾": 2225,
      "Ġof": 2226,
      "åĿļ": 2227,
      "å¦»": 2228,
      "åįıä¼ļ": 2229,
      "åŃ¦ä¹ł": 2230,
      "çĶ³": 2231,
      "çº²": 2232,
      "è¯¾": 2233,
      "çİ¯å¢ĥ": 2234,
      "190": 2235,
      "ç¿»": 2236,
      "ed": 2237,
      "éĨ": 2238,
      "äºİæĺ¯": 2239,
      "ä½įç½®": 2240,
      "çĲĨè®º": 2241,
      "è°ĥæŁ¥": 2242,
      "éĵ¶è¡Į": 2243,
      "å»ºè®¾": 2244,
      "åĲ¬": 2245,
      "å¹¿ä¸ľ": 2246,
      "Ġé©¬": 2247,
      "è¿«": 2248,
      "ç§ĭ": 2249,
      "åıįåºĶ": 2250,
      "åŃĶ": 2251,
      "æĸĩåŃ¦": 2252,
      "æįŁ": 2253,
      "èĦī": 2254,
      "åĮºçļĦ": 2255,
      "æĬµ": 2256,
      "å¾ħ": 2257,
      "å¤ªå¹³": 2258,
      "å¸Ĥåľº": 2259,
      "Ġæľ¬": 2260,
      "æ³ī": 2261,
      "ä¸Ģèµ·": 2262,
      "æ³ķéĻ¢": 2263,
      "æµĻ": 2264,
      "æĢ§çļĦ": 2265,
      "ç¾İåħĥ": 2266,
      "æ¯ģ": 2267,
      "å°Ķæĸ¯": 2268,
      "ä¸»ä»»": 2269,
      "ä¼ģä¸ļ": 2270,
      "æĥł": 2271,
      "å¤ļæķ°": 2272,
      "çĶĺ": 2273,
      "èĥŀ": 2274,
      "ä½ĵèĤ²": 2275,
      "ä¸ĭè¾ĸçļĦä¸Ģä¸ª": 2276,
      "é¸Ł": 2277,
      "æ¨ª": 2278,
      "éŃı": 2279,
      "çĤ¸": 2280,
      "è®¢": 2281,
      "åĳ¼": 2282,
      "èĢĮä¸Ķ": 2283,
      "æ±½": 2284,
      "è¾Ľ": 2285,
      "åĮħåĲ«": 2286,
      "é»ĺ": 2287,
      "åŃ©": 2288,
      "han": 2289,
      "åĪ©çĶ¨": 2290,
      "36": 2291,
      "ç»į": 2292,
      "æĦ¿": 2293,
      "ï¼ļãĢĮ": 2294,
      "ä½Ĳ": 2295,
      "ä¸ĭçļĦ": 2296,
      "å½¢å¼ı": 2297,
      "éĢīæĭ©": 2298,
      "æĶ¿æ²»äººçī©": 2299,
      "ä¸įèĥ½": 2300,
      "æĺ¾ç¤º": 2301,
      "ä¾µ": 2302,
      "è°ĭ": 2303,
      "åªĴä½ĵ": 2304,
      "èª": 2305,
      "å®īåħ¨": 2306,
      "åĪĽä½ľ": 2307,
      "æ½®": 2308,
      "èĪį": 2309,
      "å¹´éĹ´": 2310,
      "èĬ¬": 2311,
      "åĪ¶éĢł": 2312,
      "æ³Ľ": 2313,
      "èĳ£": 2314,
      "æĪ´": 2315,
      "ç¯ĩ": 2316,
      "åħ±åĲĮ": 2317,
      "æĭīæĸ¯": 2318,
      "è°Ī": 2319,
      "çĽ´åĪ°": 2320,
      "è§£æĶ¾": 2321,
      "æģ¶": 2322,
      "èĩªçĦ¶": 2323,
      "è¥¿éĥ¨": 2324,
      "2017": 2325,
      "åħ±æľī": 2326,
      "æĶ»åĩ»": 2327,
      "æĮĩæĮ¥": 2328,
      "ä¸¾åĬŀ": 2329,
      "æľīéĻĲåħ¬åı¸": 2330,
      "èŀį": 2331,
      "çĽ¸å½ĵ": 2332,
      "åĬª": 2333,
      "od": 2334,
      "38": 2335,
      "37": 2336,
      "ent": 2337,
      "ç»©": 2338,
      "çļĦåľ°": 2339,
      "èģĶéĤ¦": 2340,
      "èħĬ": 2341,
      "åĨ³èµĽ": 2342,
      "åŁºæľ¬": 2343,
      "æĽ¾ç»ı": 2344,
      "è®®ä¼ļ": 2345,
      "æľºè½¦": 2346,
      "ä¹°": 2347,
      "èĨ": 2348,
      "ä¸īå¹´": 2349,
      "è¿Ļæĺ¯": 2350,
      "æĦıå¤§åĪ©": 2351,
      "èµĽäºĭ": 2352,
      "åħĭåħ°": 2353,
      "è¡Įä¸º": 2354,
      "å°ıæĹ¶": 2355,
      "å®ŀéĻħ": 2356,
      "åģı": 2357,
      "å¾Īå¤ļ": 2358,
      "èĥ½å¤Ł": 2359,
      "è®¡ç®Ĺ": 2360,
      "åģ¥": 2361,
      "éĺ¿å°Ķ": 2362,
      "ir": 2363,
      "äººç±»": 2364,
      "è®¾ç«ĭ": 2365,
      "å¢ĵ": 2366,
      "åįģä¸Ģ": 2367,
      "åĬ¨çĶ»": 2368,
      "æī§è¡Į": 2369,
      "èİī": 2370,
      "èĥ½åĬĽ": 2371,
      "èĦ±": 2372,
      "ç¼©": 2373,
      "èģĮä¸ļ": 2374,
      "èĴĻåı¤": 2375,
      "éģ¿": 2376,
      "åŁºç¡": 2377,
      "åıĳå¸ĥ": 2378,
      "æĢ¥": 2379,
      "ãĢįï¼Ī": 2380,
      "å¥ı": 2381,
      "å®ĥä»¬": 2382,
      "ç±»ä¼¼": 2383,
      "äºķ": 2384,
      "ç¿¼": 2385,
      "å¹¿å·ŀ": 2386,
      "åħ³äºİ": 2387,
      "å¢¨": 2388,
      "âĢĶâĢĶ": 2389,
      "å¥³åŃĲ": 2390,
      "çŃīåľ°": 2391,
      "çĸĳ": 2392,
      "èµĸ": 2393,
      "åŁºç¡Ģ": 2394,
      "æĺ¯ä¸Ģç§į": 2395,
      "iv": 2396,
      "éļıåĲİ": 2397,
      "åħ±äº§åħļ": 2398,
      "å¤§ä¼ļ": 2399,
      "åĬŁèĥ½": 2400,
      "ä½¿å¾Ĺ": 2401,
      "èĤī": 2402,
      "Ġd": 2403,
      "åį±": 2404,
      "è¡£": 2405,
      "å¥Ĺ": 2406,
      "ä¸įæĺ¯": 2407,
      "å·´å£«": 2408,
      "æī¬": 2409,
      "æĸĩçī©": 2410,
      "os": 2411,
      "è¾¾åĪ°": 2412,
      "2004": 2413,
      "è¯¯": 2414,
      "æ¦ľ": 2415,
      "åĨįæ¬¡": 2416,
      "åĮ¹": 2417,
      "ä¸įåĲĮçļĦ": 2418,
      "æ¦Ĥ": 2419,
      "å®ľ": 2420,
      "èĻİ": 2421,
      "åħ¬å¼Ģ": 2422,
      "éĴĪ": 2423,
      "éĥ¨éķ¿": 2424,
      "è¡¨çİ°": 2425,
      "åĿĹ": 2426,
      "åĳĪ": 2427,
      "æį·": 2428,
      "è·¯çº¿": 2429,
      "æĹ¥åľ¨": 2430,
      "çıł": 2431,
      "å¸ĮæľĽ": 2432,
      "ia": 2433,
      "æĹ¶åĢĻ": 2434,
      "çº§è¡ĮæĶ¿": 2435,
      "ç§¦": 2436,
      "èĻ«": 2437,
      "34": 2438,
      "çº¦ç¿°": 2439,
      "å®ļçļĦ": 2440,
      "åĩºèº«": 2441,
      "å¤©ä¸»æķĻ": 2442,
      "è®®åĳĺ": 2443,
      "è¿ĲåĬ¨åĳĺ": 2444,
      "è¿Ļæł·": 2445,
      "éĶ¡": 2446,
      "æİ¨åĩº": 2447,
      "æ³ķå¾ĭ": 2448,
      "âĢ¦": 2449,
      "åĨ·": 2450,
      "åįķæĽ²": 2451,
      "çļĦä¸»": 2452,
      "ä¹¡éķĩ": 2453,
      "å»ī": 2454,
      "ç´§": 2455,
      "åĩ¤": 2456,
      "åĿı": 2457,
      "ä¸Ģæ¬¡": 2458,
      "ä½ľçĶ¨": 2459,
      "æ®ĸ": 2460,
      "è£ģ": 2461,
      "ä»Ļ": 2462,
      "br": 2463,
      "è¿İ": 2464,
      "åīĳ": 2465,
      "æķ°æį®": 2466,
      "äººåı£ä¸º": 2467,
      "åı«": 2468,
      "ç©ºéĹ´": 2469,
      "å¯»": 2470,
      "ç¼ĺ": 2471,
      "ä¸ľåįĹ": 2472,
      "èĭ±æĸĩ": 2473,
      "Ġåľ£": 2474,
      "åĵ²": 2475,
      "im": 2476,
      "75": 2477,
      "æ¯«": 2478,
      "æŁĵ": 2479,
      "è¿·": 2480,
      "æ¸¡": 2481,
      "åľĪ": 2482,
      "æ±ł": 2483,
      "äº®": 2484,
      "ä¸īä¸ª": 2485,
      "ä¾¯": 2486,
      "å¹¿æĴŃ": 2487,
      "å½©": 2488,
      "ä¸ľäº¬": 2489,
      "ä¸ĭè¾ĸä»¥ä¸ĭ": 2490,
      "éļĶ": 2491,
      "æĺ¯æ³ķåĽ½": 2492,
      "éĺ´": 2493,
      "æµĻæ±Ł": 2494,
      "æ¼Ķåĩº": 2495,
      "ç¦»å¼Ģ": 2496,
      "åĽ¢ä½ĵ": 2497,
      "ç¾¤å²Ľ": 2498,
      "æĶ¿çŃĸ": 2499,
      "è¿¹": 2500,
      "åķĨä¸ļ": 2501,
      "åĽ½çİĭ": 2502,
      "çºªå½ķ": 2503,
      "ç»Łæ²»": 2504,
      "æ¶ī": 2505,
      "39": 2506,
      "èĳ¡": 2507,
      "ĠK": 2508,
      "åĲĦç§į": 2509,
      "å±±ä¸ľ": 2510,
      "ot": 2511,
      "æĸ¹åĲĳ": 2512,
      "éĺ»": 2513,
      "è¸": 2514,
      "æ°§": 2515,
      "çĲ´": 2516,
      "è¾ħ": 2517,
      "æ»¨": 2518,
      "æŀĲ": 2519,
      "æĭįæĳĦ": 2520,
      "è´¸": 2521,
      "èµĦæĸĻ": 2522,
      "ä¸Ģæł·": 2523,
      "ä¸ĵä¸ļ": 2524,
      ")ï¼Į": 2525,
      "æģĲ": 2526,
      "æļĹ": 2527,
      "åŁºçĿ£": 2528,
      "åŁİéķĩ": 2529,
      "åĮ»éĻ¢": 2530,
      "ä»įçĦ¶": 2531,
      "åĩ½": 2532,
      "ä»ĺ": 2533,
      "ĠæĿİ": 2534,
      "åĶ¯ä¸Ģ": 2535,
      "Ġthe": 2536,
      "åįĸ": 2537,
      "çĳŁ": 2538,
      "å¯¿": 2539,
      "å¼ĥ": 2540,
      "æ¢¦": 2541,
      "éº»": 2542,
      "å®ĺæĸ¹": 2543,
      "å®ŀéªĮ": 2544,
      "åĽĽå·Ŀ": 2545,
      "æĸ¯åĿ¦": 2546,
      "ation": 2547,
      "æĭĽ": 2548,
      "åĳ³": 2549,
      "æĺ¯ä¸ĭè¾ĸçļĦä¸Ģä¸ª": 2550,
      "ra": 2551,
      "è¥¿åĮĹ": 2552,
      "äº§åĵģ": 2553,
      "ï¼ĮãĢĬ": 2554,
      "çĶ·æĢ§": 2555,
      "æ¯ıå¹³æĸ¹åħ¬éĩĮ": 2556,
      "æ´ŀ": 2557,
      "åĬłæĭ¿": 2558,
      "ç»ķ": 2559,
      "åĦ¿åŃĲ": 2560,
      "éĶĻ": 2561,
      "è¥¿åįĹ": 2562,
      "æ¨¡å¼ı": 2563,
      "65": 2564,
      "ä¸»æĮģ": 2565,
      "çļĦçī¹": 2566,
      "åįļçī©": 2567,
      "æĪĸèĢħ": 2568,
      "çĶº": 2569,
      "é«ĺéĢŁ": 2570,
      "çĽ¸åĲĮ": 2571,
      "éĥ¨ä»½": 2572,
      "çĴ": 2573,
      "ä¹Įåħĭåħ°": 2574,
      "ä¼į": 2575,
      "è±ª": 2576,
      "å¹¶äºİ": 2577,
      "ç¬¬ä¸Ģæ¬¡": 2578,
      "å°Ĭ": 2579,
      "¤Ĳ": 2580,
      "ä¸¥éĩį": 2581,
      "åľ°çļĦ": 2582,
      "é£ŀæľº": 2583,
      "çº½çº¦": 2584,
      "æĹ©æľŁ": 2585,
      "ä¹ĭéĹ´çļĦ": 2586,
      "éĴ¢": 2587,
      "çĹĩ": 2588,
      "åħ¨çĲĥ": 2589,
      "éĢĲæ¸Ĳ": 2590,
      "å¥Ī": 2591,
      "å®ĹæķĻ": 2592,
      "æĺĤ": 2593,
      "ä»»åĬ¡": 2594,
      "49": 2595,
      "ç»ĺ": 2596,
      "ãĢĢ": 2597,
      "ä¸ĭè¾ĸä»¥ä¸ĭåľ°åĮº": 2598,
      "èĦļ": 2599,
      "åĨ¬": 2600,
      "å¦¹": 2601,
      "ç¡¬": 2602,
      "ä¿Ĺ": 2603,
      "å¸ĮèħĬ": 2604,
      "éĺ¿æĭī": 2605,
      "ãĢįãĢģ": 2606,
      "ç¹": 2607,
      "è§Ħæ¨¡": 2608,
      "æľĢå¤§": 2609,
      "éĿĴå¹´": 2610,
      "2018": 2611,
      "32": 2612,
      "åĲķ": 2613,
      "äº«": 2614,
      "è¢«ç§°ä¸º": 2615,
      "55": 2616,
      "æ¸ħæľĿ": 2617,
      "æĺ¯ä¸ŃåĽ½": 2618,
      "é½¿": 2619,
      "åĨĪ": 2620,
      "éĢĬ": 2621,
      "èµ¢": 2622,
      "æłĸæģ¯": 2623,
      "å´ĩ": 2624,
      "éģĵè·¯": 2625,
      "é¢ģ": 2626,
      "47": 2627,
      "åħ¶åĲİ": 2628,
      "å¹´åľ¨": 2629,
      "æĽ¹": 2630,
      "ä¸ĭçļĦä¸Ģä¸ª": 2631,
      "ç¬Ķ": 2632,
      "èļ": 2633,
      "ç®Ģç§°": 2634,
      "um": 2635,
      "ãĢĤãĢį": 2636,
      "æ¶ħ": 2637,
      "æĺİæľĿ": 2638,
      "çº§è¡ĮæĶ¿åįķä½į": 2639,
      "2003": 2640,
      "ç»ª": 2641,
      "åĢĴ": 2642,
      "å¥¹çļĦ": 2643,
      "189": 2644,
      "åİŁåĽł": 2645,
      "è¾Ĳ": 2646,
      "ç§Ł": 2647,
      "è¶ĬåįĹ": 2648,
      "å¾½": 2649,
      "ä»¥æĿ¥": 2650,
      "å±ŀçļĦ": 2651,
      "Ġæĸ°": 2652,
      "é©±": 2653,
      "ä¹¡éķĩçº§è¡ĮæĶ¿åįķä½į": 2654,
      "æ¥ļ": 2655,
      "ç»¼": 2656,
      "èĭ±è¯Ń": 2657,
      "çŁ¿": 2658,
      "éĿĻ": 2659,
      "ĠO": 2660,
      "åįĹäº¬": 2661,
      "ç¹ģ": 2662,
      "æŃĮæīĭ": 2663,
      "å²Ń": 2664,
      "åľ°çĲĥ": 2665,
      "33": 2666,
      "46": 2667,
      "æĪª": 2668,
      "çŃīäºº": 2669,
      "éĵľ": 2670,
      "Ġè¯¥": 2671,
      "æ¶²": 2672,
      "ä¸įä¹ħ": 2673,
      "åĩ»è´¥": 2674,
      "è½¨éģĵ": 2675,
      "è¿ŀæİ¥": 2676,
      "æŁ±": 2677,
      "éĥŃ": 2678,
      "èªī": 2679,
      "å½ĵéĢī": 2680,
      "åħ¨éĥ¨": 2681,
      "æĺŃ": 2682,
      "æľĢåĪĿ": 2683,
      "éĩĮæĸ¯": 2684,
      "çĬ¹": 2685,
      "éĺģ": 2686,
      "å®¶åºŃ": 2687,
      "åįļå£«": 2688,
      "åı·çº¿": 2689,
      "æĭŁ": 2690,
      "æµ¦": 2691,
      "ä¹Ļ": 2692,
      "ä»ĸä»¬çļĦ": 2693,
      "åľ¨æŃ¤": 2694,
      "åĬłæĭ¿å¤§": 2695,
      "åºĶçĶ¨": 2696,
      "æĺ¯ä¸ĭè¾ĸçļĦä¸Ģä¸ªä¹¡éķĩçº§è¡ĮæĶ¿åįķä½į": 2697,
      "èĹ¤": 2698,
      "å¤©æ´¥": 2699,
      "ç¨³": 2700,
      "çī©çĲĨ": 2701,
      "ag": 2702,
      "Ġc": 2703,
      "éĢĿ": 2704,
      "èĽĭ": 2705,
      "å¯¼æ¼Ķ": 2706,
      "å¹¿åľº": 2707,
      "å¦ĩ": 2708,
      "åĪĻæĺ¯": 2709,
      "æĬ¥åĳĬ": 2710,
      "å®ļä¹ī": 2711,
      "äººåı£å¯Ĩåº¦æ¯ıå¹³æĸ¹åħ¬éĩĮ": 2712,
      "ç»Ĩèĥŀ": 2713,
      "åħ¬åħ±": 2714,
      "åıĳåĬ¨": 2715,
      "ç½ĳç»ľ": 2716,
      "2002": 2717,
      "åįļçī©é¦Ĩ": 2718,
      "äºĭåĬ¡": 2719,
      "æİĮ": 2720,
      "æĴŃåĩº": 2721,
      "æĮ¯": 2722,
      "èĲĦ": 2723,
      "ä¸ľéĥ¨": 2724,
      "ä¼Ĳ": 2725,
      "æĬķèµĦ": 2726,
      "èĳ¡èĲĦ": 2727,
      "éĻ¶": 2728,
      "è£Ĥ": 2729,
      "å¢Ļ": 2730,
      "çĲĥåĳĺ": 2731,
      "åĲĪå¹¶": 2732,
      "è¾½": 2733,
      "æĮĩåĩº": 2734,
      "æ¯Ķè¾ĥ": 2735,
      "æķĻåĮº": 2736,
      "æ¼ĶåĶ±": 2737,
      "æ½ľ": 2738,
      "ä¼°": 2739,
      "ç¥ĸçĪ¶": 2740,
      "ç¾İæ´²": 2741,
      "çĽĲ": 2742,
      "èıľ": 2743,
      "è®Ńç»ĥ": 2744,
      "è½´": 2745,
      "Ġçİĭ": 2746,
      "è¾ŀ": 2747,
      "æ¯įäº²": 2748,
      "èİİ": 2749,
      "æ·¡": 2750,
      "ä¹ĥ": 2751,
      "åı¸ä»¤": 2752,
      "éĹŃ": 2753,
      "å¹´åĲİ": 2754,
      "çº¸": 2755,
      "æķ´ä¸ª": 2756,
      "äººå£«": 2757,
      "é£İæł¼": 2758,
      "åİ»ä¸ĸ": 2759,
      "å¤§éĥ¨åĪĨ": 2760,
      "æĮģç»Ń": 2761,
      "ĠJ": 2762,
      "æĺĨ": 2763,
      "ä¸įä¼ļ": 2764,
      "åĮĸåŃ¦": 2765,
      "çļĦæĸ°": 2766,
      "æ»ĳ": 2767,
      "åĪ¶åº¦": 2768,
      "æ¡£": 2769,
      "å¹¼": 2770,
      "æŃ»äº¡": 2771,
      "å¼±": 2772,
      "é©¬æĿ¥": 2773,
      "ç²ī": 2774,
      "åĽ¾ç¤º": 2775,
      "ä¸Ńæĸĩ": 2776,
      "éĢŁåº¦": 2777,
      "èĢħçļĦ": 2778,
      "æ¼«çĶ»": 2779,
      "æµª": 2780,
      "ä¼¦æķ¦": 2781,
      "è®°è½½": 2782,
      "éĤĢ": 2783,
      "åĲįåŃĹ": 2784,
      "å¤§æĪĺ": 2785,
      "é¼ĵ": 2786,
      "åĪĨéĴŁ": 2787,
      "åħ¬å°º": 2788,
      "éĽ¶": 2789,
      "èµı": 2790,
      "è£Ķ": 2791,
      "ä¼Ł": 2792,
      "å¹´æĹ¶çļĦ": 2793,
      "æļĤ": 2794,
      "æııè¿°": 2795,
      "å®ĥçļĦ": 2796,
      "åĨĮ": 2797,
      "ç§ĳæĬĢ": 2798,
      "çĽ®æłĩ": 2799,
      "èĶ¡": 2800,
      "å¤Ħäºİ": 2801,
      "è·¨": 2802,
      "åħ¬å¸ĥ": 2803,
      "ä¿±ä¹Ĳ": 2804,
      "è¯¥å¸Ĥéķĩ": 2805,
      "å¤ļçļĦ": 2806,
      "å¹¸": 2807,
      "åĽĽå¹´": 2808,
      "æĭĴ": 2809,
      "éĢıè¿ĩ": 2810,
      "åĩºçĶŁ": 2811,
      "è§Ħå®ļ": 2812,
      "äººåı£åıĺåĮĸ": 2813,
      "çĶµè§Ĩåı°": 2814,
      "èıĮ": 2815,
      "Ġs": 2816,
      "ä¿±ä¹Ĳéĥ¨": 2817,
      "åħĪåĲİ": 2818,
      "Ġ-": 2819,
      "èµĽåŃ£": 2820,
      "èĳĹåĲį": 2821,
      "äººåı£åıĺåĮĸåĽ¾ç¤º": 2822,
      "è§¦": 2823,
      "85": 2824,
      "%ï¼Į": 2825,
      "æ²³åįĹ": 2826,
      "æģ¢": 2827,
      "å°Ķå¾·": 2828,
      "æķĻåłĤ": 2829,
      "æĪĺå½¹": 2830,
      "æĽ¾ä»»": 2831,
      "æĹģ": 2832,
      "ç»ıå¸¸": 2833,
      "åīĤ": 2834,
      "å¼ĢæĶ¾": 2835,
      "è¿ŀç»Ń": 2836,
      "å¹´åº¦": 2837,
      "è§Ī": 2838,
      "ç¦ıå»º": 2839,
      "æ¾³éĹ¨": 2840,
      "æľĢæĹ©": 2841,
      "çģ¾": 2842,
      "å°½ç®¡": 2843,
      "åģ¶": 2844,
      "éĻ·": 2845,
      "ç¬¬äºĶ": 2846,
      "å½¼": 2847,
      "åĽ°": 2848,
      "ä¸įå°ĳ": 2849,
      "ä¸ĺ": 2850,
      "ï¼ĮâĢľ": 2851,
      "è®¾ç½®": 2852,
      "æĿĤå¿Ĺ": 2853,
      "å¤ªå¹³æ´ĭ": 2854,
      "è¿ĲåĬ¨ä¼ļ": 2855,
      "æ²Ī": 2856,
      "é¢ľ": 2857,
      "çĶ·åŃĲ": 2858,
      "æ®ĭ": 2859,
      "åŃ¦èĢħ": 2860,
      "æľīçļĦ": 2861,
      "çī§": 2862,
      "åĳ½åĲį": 2863,
      "44": 2864,
      "æĤ£": 2865,
      "ay": 2866,
      "æĶ¹åıĺ": 2867,
      "éļľ": 2868,
      "æĶ¹éĿ©": 2869,
      "çĪĨåıĳ": 2870,
      "ec": 2871,
      "åľŁåľ°": 2872,
      "çİ©å®¶": 2873,
      "åĬŀåħ¬": 2874,
      "çĦ¶åĲİ": 2875,
      "å¹´èµ·": 2876,
      "å¸®åĬ©": 2877,
      "ç³ĸ": 2878,
      "åĽ½çļĦ": 2879,
      "å®¿": 2880,
      "op": 2881,
      "ç»ıèĲ¥": 2882,
      "th": 2883,
      "äº¨": 2884,
      "ä¸¤äºº": 2885,
      "æĸ¯ç§ĳ": 2886,
      "ä½ľå®¶": 2887,
      "éĻĨåĨĽ": 2888,
      "ãĢįãĢģãĢĮ": 2889,
      "è´Ŀå°Ķ": 2890,
      "æľĢå¤§çļĦ": 2891,
      "å¤ĸäº¤": 2892,
      "å®¶æĹı": 2893,
      "å¹´æĹ¶çļĦäººåı£ä¸º": 2894,
      "åĲĮæł·": 2895,
      "çº¯": 2896,
      "æ¡ĥ": 2897,
      "æŁ¯": 2898,
      "æģ¢å¤į": 2899,
      "æ¯Ķäºļ": 2900,
      "ä»¥ä¸Ĭ": 2901,
      "ä½Ĩåľ¨": 2902,
      "é©¶": 2903,
      "èĴĭ": 2904,
      "å£ģ": 2905,
      "æĪĲç»©": 2906,
      "çļĦä¸»è¦ģ": 2907,
      "è¿Ī": 2908,
      "å¼ķèµ·": 2909,
      "Ġåį¡": 2910,
      "ç½ĳç«Ļ": 2911,
      "åĭĩ": 2912,
      "æ±¤": 2913,
      "64": 2914,
      "å¤©æĸĩ": 2915,
      "å±ŀä¸ĭçļĦä¸Ģä¸ª": 2916,
      "æķı": 2917,
      "88": 2918,
      "éĶ¦æłĩ": 2919,
      "ï¼ģ": 2920,
      "%ãĢĤ": 2921,
      "åĪĨåŃĲ": 2922,
      "åħĥå¹´": 2923,
      "ä¸Ńéĥ¨": 2924,
      "éĤ®": 2925,
      "çģ¯": 2926,
      "åİ¦": 2927,
      "ç¨İ": 2928,
      "ç¬¬ä¸Ģä¸ª": 2929,
      "æ±½è½¦": 2930,
      "è¿ĺæĺ¯": 2931,
      "é£ŀè¡Į": 2932,
      "çĭ±": 2933,
      "è´¸æĺĵ": 2934,
      "ç´«": 2935,
      "çī©ç§į": 2936,
      "çıį": 2937,
      "åĬłä¸Ĭ": 2938,
      "éļĲ": 2939,
      "ç¥Ń": 2940,
      "æ±Ĺ": 2941,
      "ä¸īåįģ": 2942,
      "çĨĻ": 2943,
      "æŃ¤åĲİ": 2944,
      "è¶ħçº§": 2945,
      "ä¼´": 2946,
      "çİ°æĹ¶": 2947,
      "ï¼Īï¼Įï¼īï¼Į": 2948,
      "500": 2949,
      "åįĹæŀģ": 2950,
      "ä»Ķ": 2951,
      "åŃŁ": 2952,
      "å¤§çº¦": 2953,
      "èĮ¶": 2954,
      "76": 2955,
      "è¡¡": 2956,
      "Ġå¼ł": 2957,
      "ä¿¡æģ¯": 2958,
      "åľ°ä¸ĭ": 2959,
      "éķ¿çļĦ": 2960,
      "æľĪåı°": 2961,
      "ç«ĭæ³ķ": 2962,
      "çĸĨ": 2963,
      "é¾Ħ": 2964,
      "è§£æĶ¾åĨĽ": 2965,
      "åı¯è¾¾": 2966,
      "æģĭ": 2967,
      "åıĸä»£": 2968,
      "åı¥": 2969,
      "ç¬¬åįģ": 2970,
      "åŁĶ": 2971,
      "èµ¢å¾Ĺ": 2972,
      "èĢĮåľ¨": 2973,
      "æ¯ıå¹´": 2974,
      "çļĩå¸Ŀ": 2975,
      "å½ĵä¸Ń": 2976,
      "å±ħä½ı": 2977,
      "èİ²": 2978,
      "åŀĭçļĦ": 2979,
      "éĶ®": 2980,
      "åħģ": 2981,
      "ä»¥åĲİ": 2982,
      "å®ħ": 2983,
      "ç¬¬äºĮæ¬¡": 2984,
      "è¡¨æ¼Ķ": 2985,
      "æĲŃ": 2986,
      "çĩĥ": 2987,
      "æ®Ĭ": 2988,
      "çĶµè§Ĩåī§": 2989,
      "ä¸ļåĬ¡": 2990,
      "åĬłåĿ¡": 2991,
      "èĩªåĬ¨": 2992,
      "çģ°": 2993,
      "èĩ³ä»Ĭ": 2994,
      "èŀº": 2995,
      "å¡ĺ": 2996,
      "äººä»¬": 2997,
      "æķĻä¼ļ": 2998,
      "éĿ¢çļĦ": 2999,
      "éģį": 3000,
      "çŃĶ": 3001,
      "æ²ī": 3002,
      "æŃ¦åĻ¨": 3003,
      "éĥ¨éĹ¨": 3004,
      "og": 3005,
      "ul": 3006,
      "ĠV": 3007,
      "èį·åħ°": 3008,
      "89": 3009,
      "ä½ĵçļĦ": 3010,
      "æ£Ĵ": 3011,
      "æĿ¡ä»¶": 3012,
      "æµģåŁŁ": 3013,
      "å¥´": 3014,
      "å»ºè®®": 3015,
      "ä¿ĥ": 3016,
      "åĪĨæŀĲ": 3017,
      "å°Ĩåħ¶": 3018,
      "åĽŀåĪ°": 3019,
      "éĩįè¦ģçļĦ": 3020,
      "çĥ§": 3021,
      "åįıåĬ©": 3022,
      "é¢ĨåŁŁ": 3023,
      "åİļ": 3024,
      "å·¦åı³": 3025,
      "ä¹ĭå¤ĸ": 3026,
      "èĭ±æł¼åħ°": 3027,
      "çļĦä¸Ģç§į": 3028,
      "åĩłä¹İ": 3029,
      "åħ¬åĪĨ": 3030,
      "æ©": 3031,
      "åĽ¾ä¹¦": 3032,
      "çĬ¶æĢģ": 3033,
      "æ²Ł": 3034,
      "å»ºéĢł": 3035,
      "å¤ļæ¬¡": 3036,
      "çĽ¸å¯¹": 3037,
      "åŃĿ": 3038,
      "å§ĭå»ºäºİ": 3039,
      "æĺ¯æĮĩ": 3040,
      "åİŁæľ¬": 3041,
      "å¹»": 3042,
      "éĤĵ": 3043,
      "éĺ¶æ®µ": 3044,
      "ä¸ĢåĲį": 3045,
      "ç§ĳçļĦ": 3046,
      "èº«ä»½": 3047,
      "Ġ2016": 3048,
      "Âł": 3049,
      "å¹ħ": 3050,
      "çº¬": 3051,
      "æĭĨ": 3052,
      "åľ°éĵģ": 3053,
      "æ¹ĸåįĹ": 3054,
      "è¿Ĳè¾ĵ": 3055,
      "åı¯ä»¥æĮĩ": 3056,
      "è´¤": 3057,
      "åĩºçĶŁäºİ": 3058,
      "ä¾į": 3059,
      "âĢĿï¼Ī": 3060,
      "77": 3061,
      "çĥŁ": 3062,
      "èĻļ": 3063,
      "è§ĦåĪĴ": 3064,
      "åĶ±çīĩ": 3065,
      "åĩºä»»": 3066,
      "ç£ģ": 3067,
      "è®¾å¤ĩ": 3068,
      "æŁ³": 3069,
      "çĶŁéķ¿": 3070,
      "åħĦå¼Ł": 3071,
      "åĨħéĥ¨": 3072,
      "oc": 3073,
      "æ±Łèĭı": 3074,
      "éģŃåĪ°": 3075,
      "åĩºäºĨ": 3076,
      "æķ¬": 3077,
      "ç¤¾åĮº": 3078,
      "è®¾æĸ½": 3079,
      "æĬĺ": 3080,
      "åıĻ": 3081,
      ")ãĢĤ": 3082,
      "ä¹ĲåĽ¢": 3083,
      "Ġè¥¿": 3084,
      "ç¥¥": 3085,
      "é¬": 3086,
      "åĿĽ": 3087,
      "ä¸ŃåĽ½äººæ°ĳ": 3088,
      "åıĪç§°": 3089,
      "å·´è¥¿": 3090,
      "çļĦä¸Ģéĥ¨åĪĨ": 3091,
      "1990": 3092,
      "äºĶå¹´": 3093,
      "ç¢ĳ": 3094,
      "ï¼Ł": 3095,
      "è¿ĩåİ»": 3096,
      "è·ĳ": 3097,
      "å®ĺåĳĺ": 3098,
      "æ¢°": 3099,
      "æĸ¯åŁº": 3100,
      "66": 3101,
      "ç¯®": 3102,
      "èĳ¬": 3103,
      "æ£ĭ": 3104,
      "éĶĭ": 3105,
      "æĿ¡çº¦": 3106,
      "Ġformula": 3107,
      "æµģè¡Į": 3108,
      "ä½ľæĪĺ": 3109,
      "è¾ī": 3110,
      "ç»Łä¸Ģ": 3111,
      "å¹¿æ³Ľ": 3112,
      "è´¾": 3113,
      "åŃ¦ä½į": 3114,
      "èĲ§": 3115,
      "æŁ´": 3116,
      "1999": 3117,
      "åħ´å»º": 3118,
      "å¤«åį¡": 3119,
      "ce": 3120,
      "ç»§æī¿": 3121,
      "æħĪ": 3122,
      "èµ´": 3123,
      "åľ°åĮºçļĦ": 3124,
      "èīĺ": 3125,
      "ä¸ĩäºº": 3126,
      "Ġ2": 3127,
      "å¥¥è¿Ĳ": 3128,
      "ä»»åĳ½": 3129,
      "78": 3130,
      "åĩ½æķ°": 3131,
      "\"ï¼ī": 3132,
      "åıĳå°Ħ": 3133,
      "æĻ¶": 3134,
      "éĻķ": 3135,
      "æĺŁæľŁ": 3136,
      "æľīäºĽ": 3137,
      "ĠéĻĪ": 3138,
      "çĶµèĦĳ": 3139,
      "ä¼Ĭæĸ¯": 3140,
      "é¤Ĳ": 3141,
      "åĨ¯": 3142,
      "åĭĭ": 3143,
      "åĤ¨": 3144,
      "åĽ½åĨħ": 3145,
      "åįģåĪĨ": 3146,
      "éŀ": 3147,
      "ç®Ń": 3148,
      "ri": 3149,
      "èŃ¦å¯Ł": 3150,
      "é£İæļ´": 3151,
      "èĳĽ": 3152,
      "äºĮå¹´": 3153,
      "æī¹è¯Ħ": 3154,
      "å³¡": 3155,
      "ä¸»è§Ĵ": 3156,
      "çĶ¨æĿ¥": 3157,
      "ä½ĽæķĻ": 3158,
      "äºĳåįĹ": 3159,
      "å°ĸ": 3160,
      "ĠçĶ±äºİ": 3161,
      "56": 3162,
      "å¥½çļĦ": 3163,
      "å¤ļä¸ª": 3164,
      "å¥¥æŀĹ": 3165,
      "çº¹": 3166,
      "Ġ18": 3167,
      "ä¸įæĸŃ": 3168,
      "ãĢĤãĢĬ": 3169,
      "è¿ĽæĶ»": 3170,
      "æ¦Ĥå¿µ": 3171,
      "åĽ½ä¼ļ": 3172,
      "ä¿ĿæĮģ": 3173,
      "æ¯«ç±³": 3174,
      "æķ°éĩı": 3175,
      "æĺ¯ä½įäºİ": 3176,
      "å·ŀå¸Ĥ": 3177,
      "çºµ": 3178,
      "çĵľ": 3179,
      "æĮĳ": 3180,
      "ç¾½æ¯Ľ": 3181,
      "è°±": 3182,
      "Ġè¿Ļ": 3183,
      "42": 3184,
      "åĨľä¸ļ": 3185,
      "è¿Ĳè¡Į": 3186,
      "éģ£": 3187,
      "å§Ĳ": 3188,
      "çŃ¹": 3189,
      "å±ķå¼Ģ": 3190,
      "em": 3191,
      "æīĢåľ¨": 3192,
      "Ġ2013": 3193,
      "åĽ½ç«ĭ": 3194,
      "æİĴåĲį": 3195,
      "Ġ2012": 3196,
      "Ġp": 3197,
      "é¢ĳéģĵ": 3198,
      "èĪ°éĺŁ": 3199,
      "æĭĴç»Ŀ": 3200,
      "éĶ¦æłĩèµĽ": 3201,
      "å±±èĦī": 3202,
      "æĴŀ": 3203,
      "åĢį": 3204,
      "ç»´å°Ķ": 3205,
      "86": 3206,
      "æľºä¼ļ": 3207,
      "æĸĩçī©ä¿ĿæĬ¤": 3208,
      "79": 3209,
      "æ³¢åħ°": 3210,
      "ap": 3211,
      "1998": 3212,
      "Ġ2014": 3213,
      "ĠU": 3214,
      "åĩĨå¤ĩ": 3215,
      "å¦®": 3216,
      "å¥¥æĸ¯": 3217,
      "åŁºåľ°": 3218,
      "çĨŁ": 3219,
      "åįłé¢Ĩ": 3220,
      "åŃĲçļĦ": 3221,
      "æĸ°åĬłåĿ¡": 3222,
      "é¦ĸéĥ½": 3223,
      "åĮºè´Łè´£ç®¡è¾ĸ": 3224,
      "æģĴæĺŁ": 3225,
      "æ¡Ĥ": 3226,
      "âĢĵ": 3227,
      "åıĽ": 3228,
      "çļĦåīį": 3229,
      "è¢«è®¤ä¸º": 3230,
      "æ§": 3231,
      "ç»ĦåĲĪ": 3232,
      "ä¸Ģä½į": 3233,
      "è¦": 3234,
      "çĩķ": 3235,
      "èīĩ": 3236,
      "ä»ĵ": 3237,
      "å¨ģå»ī": 3238,
      "ä¼ı": 3239,
      "æħ¢": 3240,
      "èĻĳ": 3241,
      "å®£ä¼ł": 3242,
      "å½±çīĩ": 3243,
      "åĴĮå¹³": 3244,
      "åĽ½æ°ĳåħļ": 3245,
      "è½¦è¾Ĩ": 3246,
      "éĽķ": 3247,
      "çº¿è·¯": 3248,
      "av": 3249,
      "èĭ¦": 3250,
      "æ¯ıä¸ª": 3251,
      "å¹¶æ²¡æľī": 3252,
      "åĪĢ": 3253,
      "å¡ŀå°Ķ": 3254,
      "è§£åĨ³": 3255,
      "ç²¾ç¥ŀ": 3256,
      "å¢ĥåĨħ": 3257,
      "å¨±ä¹Ĳ": 3258,
      "æ½ĺ": 3259,
      "å¤ıåŃ£": 3260,
      "è®°å½ķ": 3261,
      "Ġ2015": 3262,
      "åĩ¡": 3263,
      "è·³": 3264,
      "çº¿çļĦ": 3265,
      "èµĦæºĲ": 3266,
      "åĩıå°ĳ": 3267,
      "Ġï¼Ī": 3268,
      "åľ¨è¿Ļ": 3269,
      "éģĤ": 3270,
      "li": 3271,
      "æĻ®éĢļ": 3272,
      "æĥħåĨµä¸ĭ": 3273,
      "è¯Ħè®º": 3274,
      "æĹ¥åĨĽ": 3275,
      "å§Ķä¼ļ": 3276,
      "ers": 3277,
      "å½Ń": 3278,
      "æĸĩçī©ä¿ĿæĬ¤åįķä½į": 3279,
      "ï½": 3280,
      "ĠåįĹ": 3281,
      "ãĢı": 3282,
      "ãĢİ": 3283,
      "Ġï¼Į": 3284,
      "Ġå·´": 3285,
      "æĺ¯ç¾İåĽ½": 3286,
      "ind": 3287,
      "ç©ºåĨĽ": 3288,
      "çŀ": 3289,
      "ä¸ĢæŃ¥": 3290,
      "èĦĤ": 3291,
      "åĬĽéĩı": 3292,
      "äºĨä¸Ģä¸ª": 3293,
      "58": 3294,
      "åıªæĺ¯": 3295,
      "ç¨ĭåºı": 3296,
      "ä»°": 3297,
      "éĻĲåĪ¶": 3298,
      "300": 3299,
      "åĮĪ": 3300,
      "åĪĿæľŁ": 3301,
      "éĥ½æľī": 3302,
      "äº¤æĺĵ": 3303,
      "è´º": 3304,
      "äº¤æµģ": 3305,
      "åĦ¿ç«¥": 3306,
      "59": 3307,
      "å®ŀçİ°": 3308,
      "èĳ£äºĭ": 3309,
      "æĴĴ": 3310,
      "æĢĿæĥ³": 3311,
      "1997": 3312,
      "éķ¿æľŁ": 3313,
      "é«ĺçº§": 3314,
      "åħĥç´ł": 3315,
      "ard": 3316,
      "éĿŀæ´²": 3317,
      "é©¾": 3318,
      "æĭīåħĭ": 3319,
      "åįĬå²Ľ": 3320,
      "ä¼ļåľ¨": 3321,
      "ãĢī": 3322,
      "æĪĸæĺ¯": 3323,
      "æľĭ": 3324,
      "ãĢĪ": 3325,
      "åıĪåĲį": 3326,
      "æĺ¯ä¹Įåħĭåħ°": 3327,
      "ov": 3328,
      "æĹłçº¿": 3329,
      "çĶ¨çļĦ": 3330,
      "çĸ¾": 3331,
      "çĮİ": 3332,
      "å¥¥æŀĹåĮ¹": 3333,
      "ç»Łè®¡": 3334,
      "è¥¿çľģ": 3335,
      "åŁºéĩĳ": 3336,
      "åĬĽçļĦ": 3337,
      "çł´åĿı": 3338,
      "Ġå¸ĥ": 3339,
      "è¿Ŀ": 3340,
      "ä¼¸": 3341,
      "å¥³åĦ¿": 3342,
      "åıĮæĸ¹": 3343,
      "çĲ³": 3344,
      "åħ¬åħĥ": 3345,
      "69": 3346,
      "ç»¼åĲĪ": 3347,
      "åħ½": 3348,
      "å¹³åı°": 3349,
      "èĳĹåĲįçļĦ": 3350,
      "68": 3351,
      "AT": 3352,
      "æŀļ": 3353,
      "Ġ3": 3354,
      "è®°èĢħ": 3355,
      "Ġ2017": 3356,
      "1980": 3357,
      "æħķ": 3358,
      "è´¯": 3359,
      "è¡Ķ": 3360,
      "ä¸Ģå¹´": 3361,
      "çļĦå°ı": 3362,
      "åĪĨç±»": 3363,
      "ä¸ªæľĪ": 3364,
      "éĿĸ": 3365,
      "åŁºäºİ": 3366,
      "é¥°æ¼Ķ": 3367,
      "åĲĥ": 3368,
      "è¦Ĩ": 3369,
      "æĹ¥èĩ³": 3370,
      "å¤§æ¥¼": 3371,
      "éģĹåĿĢ": 3372,
      "ä¸įæĺİ": 3373,
      "æĽ¾åľ¨": 3374,
      "è¿ħ": 3375,
      "è§Ĩä¸º": 3376,
      "çļĦæĹ¶åĢĻ": 3377,
      "å¾·éĩĮ": 3378,
      "ç¼ĵ": 3379,
      "èĩªæ²»åĮº": 3380,
      "é¬¼": 3381,
      "åĮĸçļĦ": 3382,
      "è°ĵ": 3383,
      "æİ¥è¿ĳ": 3384,
      "å°ĳå¹´": 3385,
      "Ġm": 3386,
      "åıĬåħ¶": 3387,
      "âĢĿãĢģ": 3388,
      "43": 3389,
      "Ġ1": 3390,
      "éĩĳå±ŀ": 3391,
      "Ġb": 3392,
      "èĽĩ": 3393,
      "åįıè®®": 3394,
      "äºĮä¸ĸ": 3395,
      "Ġé«ĺ": 3396,
      "çĨĬ": 3397,
      "èµĦæł¼": 3398,
      "çĮª": 3399,
      "41": 3400,
      "å·´é»İ": 3401,
      "æĹ¥èµ·": 3402,
      "è¯¦": 3403,
      "æĪĲçļĦ": 3404,
      "å¿Ĩ": 3405,
      "ä½ĵéķ¿": 3406,
      "ç¨ĭåº¦": 3407,
      "ç²Ĵ": 3408,
      "çļĦå½±åĵį": 3409,
      "éĥ½ä¼ļ": 3410,
      "æ³Ĭ": 3411,
      "æĺ¯ä¹Įåħĭåħ°çļĦ": 3412,
      "åĭ¤": 3413,
      "çĶ¨æĪ·": 3414,
      "å¹´å¼Ģå§ĭ": 3415,
      "æ®ĸæ°ĳ": 3416,
      "æľºåħ³": 3417,
      "Ġé»Ħ": 3418,
      "è´¨éĩı": 3419,
      "æĹº": 3420,
      "çĬ¹å¤ª": 3421,
      "åºĶè¯¥": 3422,
      "ï¼ĮãĢĮ": 3423,
      "åıĤèµĽ": 3424,
      "é¹¿": 3425,
      "å°ıåŃ¦": 3426,
      "èĬ³": 3427,
      "é³įé±¼": 3428,
      "è©": 3429,
      "å¸ĤçļĦ": 3430,
      "åĽłèĢĮ": 3431,
      "å¹´è½»": 3432,
      "åħīç»ª": 3433,
      "å¤§åŀĭ": 3434,
      "ç§»åĬ¨": 3435,
      "æĢ»éĥ¨": 3436,
      "çŁ¥éģĵ": 3437,
      "ç½ķ": 3438,
      "å¹´è¢«": 3439,
      "å¥¥æŀĹåĮ¹åħĭ": 3440,
      "äº§ä¸ļ": 3441,
      "ç§ĺä¹¦": 3442,
      "ç»´äºļ": 3443,
      "çķª": 3444,
      "æŃ§": 3445,
      "æĿ¥è¯´": 3446,
      "èī²çļĦ": 3447,
      "çİĭæľĿ": 3448,
      "æ¾³å¤§": 3449,
      "è§£éĩĬ": 3450,
      "åİ¿äºº": 3451,
      "çī©è´¨": 3452,
      "ç»´æĮģ": 3453,
      "å¦Ĥä¸ĭ": 3454,
      "å¸¸è§ģ": 3455,
      "åĽ½åĬ¡": 3456,
      "èµ·æĿ¥": 3457,
      "åĲĮæĦı": 3458,
      "ä¸ŃåĽ½åħ±äº§åħļ": 3459,
      "Ġå®ī": 3460,
      "ut": 3461,
      "åıĺæĪĲ": 3462,
      "è§Ĥä¼Ĺ": 3463,
      "åľ¨ç¾İåĽ½": 3464,
      "åĴ¸": 3465,
      "æĺ¯åĲ¦": 3466,
      "ç¬¬åħŃ": 3467,
      "è¶£": 3468,
      "çīł": 3469,
      "è©¹": 3470,
      "åħ¬ä¸»": 3471,
      "ï¼ļï¼īï¼Į": 3472,
      "å±ŀä¸ĭçļĦä¸Ģä¸ªç§į": 3473,
      "è¯ļ": 3474,
      "çķĶ": 3475,
      "æµ·å²¸": 3476,
      "Ġæĭī": 3477,
      "å°ļæľª": 3478,
      "57": 3479,
      "ub": 3480,
      "å±¯": 3481,
      "åįģåħŃ": 3482,
      "ä½¿çĶ¨çļĦ": 3483,
      "ä¸įåı¯": 3484,
      "éļıèĳĹ": 3485,
      "ä»·åĢ¼": 3486,
      "ä¸Ģå¸¦": 3487,
      "æĸĩä»¶": 3488,
      "æ°§åĮĸ": 3489,
      "é©¬æĿ¥è¥¿äºļ": 3490,
      "ab": 3491,
      "çĽ®çļĦ": 3492,
      "IS": 3493,
      "èİ·å¾ĹäºĨ": 3494,
      "ak": 3495,
      "å¤§å¤ļæķ°": 3496,
      "æµ·åŁŁ": 3497,
      "èĳ¡èĲĦçīĻ": 3498,
      "ç±³çļĦ": 3499,
      "è¾Ĳé³įé±¼": 3500,
      "åĿİ": 3501,
      "ä¹Ķæ²»": 3502,
      "æĹħæ¸¸": 3503,
      "æĶ¯æı´": 3504,
      "è¾Ĳé³įé±¼çº²": 3505,
      "ç´¯": 3506,
      "æĸ¹æ¡Ī": 3507,
      "ä¸Ńå±±": 3508,
      "=\"": 3509,
      "ç¾Ĭ": 3510,
      "æĢ»çĲĨ": 3511,
      "ä¿Ĭ": 3512,
      "å±¿": 3513,
      "æ¶¯": 3514,
      "ĠãĢĤ": 3515,
      "ie": 3516,
      "æĬķåħ¥": 3517,
      "æľīæĹ¶": 3518,
      "èĤĥ": 3519,
      "å¿«éĢŁ": 3520,
      "ä»İäºĭ": 3521,
      "éĩĮçļĦ": 3522,
      "åĪ°è¾¾": 3523,
      "æĶ¹ç¼ĸ": 3524,
      "è¯ģæĺİ": 3525,
      "æĿĳèĲ½": 3526,
      "æĸĳ": 3527,
      "ĠåĪĺ": 3528,
      "Ġå¥¥": 3529,
      "æ²»çĸĹ": 3530,
      "å£³": 3531,
      "æİī": 3532,
      "æŃ¤æĹ¶": 3533,
      "éĶĢåĶ®": 3534,
      "çİ°è±¡": 3535,
      "ç»ĵåĲĪ": 3536,
      "çļĩå®¶": 3537,
      "Ġå°ı": 3538,
      "æĢª": 3539,
      "æľīæķĪ": 3540,
      "ç¦Ħ": 3541,
      "é¼ł": 3542,
      "éĽĨä¸Ń": 3543,
      "å®ŀæĸ½": 3544,
      "åİĦ": 3545,
      "çĺ": 3546,
      "ä½ĵç³»": 3547,
      "èĥ¶": 3548,
      "Ġ2011": 3549,
      "æ¢¯": 3550,
      "æ¾³å¤§åĪ©äºļ": 3551,
      "99": 3552,
      "è¿ĶåĽŀ": 3553,
      "åĽ¾ä¹¦é¦Ĩ": 3554,
      "æĴŃæĶ¾": 3555,
      "ç¡®å®ļ": 3556,
      "å¦»åŃĲ": 3557,
      "ä»²": 3558,
      "é¥®": 3559,
      "ä¸ľè¥¿": 3560,
      "èĬĿ": 3561,
      "nd": 3562,
      "å·ŀçļĦ": 3563,
      "Ġéĩĳ": 3564,
      "æĵİ": 3565,
      "ç¾½æ¯ĽçĲĥ": 3566,
      "åĲĦåľ°": 3567,
      "ä¸Ģä¸ĸ": 3568,
      "51": 3569,
      "æ²³åĮĹ": 3570,
      "è¯¥å¸ĤéķĩæĢ»éĿ¢ç§¯": 3571,
      "ĠSt": 3572,
      "æĿī": 3573,
      "æ¯ķä¸ļäºİ": 3574,
      "åĹ": 3575,
      "æĥĬ": 3576,
      "ç§Ĵ": 3577,
      "çİĦ": 3578,
      "ç¡ķ": 3579,
      "å¨ģå°Ķ": 3580,
      "Ġ2010": 3581,
      "æĺ¯ä»¥": 3582,
      "Ġand": 3583,
      "æĻ®æŁ¥": 3584,
      "çļĦä¸Ģåº§": 3585,
      "é«ĺçŃī": 3586,
      "æĲľ": 3587,
      "1996": 3588,
      "ä¸ºè¾Ĳé³įé±¼çº²": 3589,
      "æĸ¯çļĦ": 3590,
      "çĶµåı°": 3591,
      "çº·": 3592,
      "çłĶç©¶æīĢ": 3593,
      "è¿Ľä¸ĢæŃ¥": 3594,
      "èĥľåĪ©": 3595,
      "ç¨ĭå¼ı": 3596,
      "èµł": 3597,
      "Ġ2018": 3598,
      "Ġæł¹æį®": 3599,
      "æµ®": 3600,
      "åĢ¾": 3601,
      "ï½ŀ": 3602,
      "ä¹³": 3603,
      "æĭĵ": 3604,
      "è¥¿èĹı": 3605,
      "èħ¹": 3606,
      "å±ı": 3607,
      "éĩįåºĨ": 3608,
      "éĤĢè¯·": 3609,
      "è±Ĩ": 3610,
      "äººåľ¨": 3611,
      "å²³": 3612,
      "52": 3613,
      "87": 3614,
      "å½ĵæĹ¶çļĦ": 3615,
      "54": 3616,
      "æĮĤ": 3617,
      "æĬļ": 3618,
      "ä¸¤ç§į": 3619,
      "ç¼ħ": 3620,
      "åľ°ä½į": 3621,
      "67": 3622,
      "é¡µ": 3623,
      "Ġä¸ľ": 3624,
      "éī": 3625,
      "è¹": 3626,
      "ä¿ĿçķĻ": 3627,
      "çĮ«": 3628,
      "æĻ¨": 3629,
      "ç±»åŀĭ": 3630,
      "hans": 3631,
      "ä¸ºä¸Ģ": 3632,
      "åĪĽç«ĭ": 3633,
      "å¼ĺ": 3634,
      "åĪĽåĬŀ": 3635,
      "åįģåħ«": 3636,
      "ä¸įåĨį": 3637,
      "æĿ¥æºĲ": 3638,
      "æĻĵ": 3639,
      "åıªèĥ½": 3640,
      "ä¼¯çī¹": 3641,
      "è®¨è®º": 3642,
      "å°ĳæķ°": 3643,
      "æŃ£åľ¨": 3644,
      "æĿĲæĸĻ": 3645,
      "åįĵ": 3646,
      "éĵģéģĵ": 3647,
      "The": 3648,
      "å¤§èĩ£": 3649,
      "å°ıç»Ħ": 3650,
      "æħ§": 3651,
      "æī¹åĩĨ": 3652,
      "å¼ķæĵİ": 3653,
      "ä¹¾": 3654,
      "æĵįä½ľ": 3655,
      "é«ĺçļĦ": 3656,
      "æĸ¹çļĦ": 3657,
      "åīįçļĦ": 3658,
      "è¯¾ç¨ĭ": 3659,
      "æĬ¥éģĵ": 3660,
      "62": 3661,
      "SA": 3662,
      "âĢĿãĢģâĢľ": 3663,
      "1995": 3664,
      "åħ¬æ°ĳ": 3665,
      "æł¸å¿ĥ": 3666,
      "é²¤": 3667,
      "å¹¿åĳĬ": 3668,
      "è¢ģ": 3669,
      "II": 3670,
      "è¯ŀ": 3671,
      "æ³¥": 3672,
      "å¦ĤæŃ¤": 3673,
      "è·¯æĺĵ": 3674,
      "äººå·¥": 3675,
      "æķĪåĬĽ": 3676,
      "æķ°åŃ¦": 3677,
      "1994": 3678,
      "éĩįå»º": 3679,
      "æĺ¯æĹ¥æľ¬": 3680,
      "è®®éĻ¢": 3681,
      "åĩĮ": 3682,
      "ä¸´æĹ¶": 3683,
      "å®¢è¿Ĳ": 3684,
      "æľºæ¢°": 3685,
      "53": 3686,
      "Ġåħĭ": 3687,
      "çĶµåĬĽ": 3688,
      "èĹ©": 3689,
      "ä½ĵéķ¿åı¯è¾¾": 3690,
      "éĶģ": 3691,
      "çļĦæĦı": 3692,
      "çİĭåĽ½": 3693,
      "çĹĽ": 3694,
      "å®ªæ³ķ": 3695,
      "éĺŁçļĦ": 3696,
      "çĽ´èĩ³": 3697,
      "éĩįçĤ¹": 3698,
      "åĩŃ": 3699,
      "å°¤åħ¶": 3700,
      "é¸¡": 3701,
      "éļıçĿĢ": 3702,
      "æī¿è®¤": 3703,
      "æĬķç¥¨": 3704,
      "åı°ä¸Ń": 3705,
      "å´İ": 3706,
      "Ġ2008": 3707,
      "NA": 3708,
      "æıĴ": 3709,
      "æĢ»çĿ£": 3710,
      "æĪĲç«ĭäºİ": 3711,
      "æľªèĥ½": 3712,
      "éī´": 3713,
      "Ġä¸ī": 3714,
      "åģľæŃ¢": 3715,
      "ç¼ĸåı·": 3716,
      "æĺİæĺ¾": 3717,
      "ist": 3718,
      "åľ°éľĩ": 3719,
      "ç»ĵå©ļ": 3720,
      "åįĹåĮĹ": 3721,
      "Ġw": 3722,
      "æĿŃ": 3723,
      "BA": 3724,
      "ä¼ļçļĦ": 3725,
      "æĶ¶å½ķ": 3726,
      "çĶŁæ¶¯": 3727,
      "åŃĹæ¯į": 3728,
      "é«ĺä¸Ń": 3729,
      "æĺ¯ä¸Ģä½į": 3730,
      "éĴĪå¯¹": 3731,
      "Ch": 3732,
      "ne": 3733,
      "åħ¶å®ĥ": 3734,
      "åĨįåº¦": 3735,
      "éļ§": 3736,
      "æ³¨æĦı": 3737,
      "å®ı": 3738,
      "çĶ¸": 3739,
      "äºĭä¸ļ": 3740,
      "åĸĢ": 3741,
      "Ġç½Ĺ": 3742,
      "çĭ®": 3743,
      "èĭĹ": 3744,
      "åį«æĺŁ": 3745,
      "éĢĿä¸ĸ": 3746,
      "åĳ½ä»¤": 3747,
      "72": 3748,
      "çĤİ": 3749,
      "ä¸ĸçķĮå¤§æĪĺ": 3750,
      "åħ¶ä¸ŃçĶ·æĢ§": 3751,
      "å¾·è¯Ń": 3752,
      "æĹ¥çļĦ": 3753,
      "ä¸»é¢ĺ": 3754,
      "æľĭåıĭ": 3755,
      "æµĭè¯ķ": 3756,
      "ç¬ĳ": 3757,
      "åį¿": 3758,
      "æĹ¦": 3759,
      "æľªæĿ¥": 3760,
      "åħģè®¸": 3761,
      "ine": 3762,
      "æıĲé«ĺ": 3763,
      "æ¾³æ´²": 3764,
      "è¯´æ³ķ": 3765,
      "ä¹Ŀé¾Ļ": 3766,
      "çĶŁåĳ½": 3767,
      "èĤ¡ä»½": 3768,
      "æłĸæģ¯åľ¨": 3769,
      "ä¸ĭåįĪ": 3770,
      "å°¼æĸ¯": 3771,
      "çŃīçŃī": 3772,
      "å¤ĸçļĦ": 3773,
      "è¿ĩç¨ĭä¸Ń": 3774,
      "è¿Ľè¡ĮäºĨ": 3775,
      ";}-": 3776,
      "å¡ĳ": 3777,
      "å¤±åİ»": 3778,
      "åı°åĮĹå¸Ĥ": 3779,
      "è¯ķåĽ¾": 3780,
      "è®¿éĹ®": 3781,
      "èĪĴ": 3782,
      "äºŃ": 3783,
      "éĢīæīĭ": 3784,
      "çļĦé¦ĸ": 3785,
      "æ¬²": 3786,
      "æĶ¶åħ¥": 3787,
      "åľ³": 3788,
      "ç±³å°Ķ": 3789,
      "åĬ±": 3790,
      "æĸ¯åħĭ": 3791,
      "ud": 3792,
      "ä¸»æ¼Ķ": 3793,
      "1992": 3794,
      "çļĦçłĶç©¶": 3795,
      "éĺ®": 3796,
      "æĺ¯ä¸Ģé¢Ĺ": 3797,
      "åľ°åĪ©": 3798,
      "äº¦æľī": 3799,
      "èŁ": 3800,
      "è¡ĮæĶ¿åĮº": 3801,
      "å¤§éģĵ": 3802,
      "1993": 3803,
      "ä¸Ĭæĺł": 3804,
      "æĪĴ": 3805,
      "ç§ĳçļĦåħ¶ä¸Ń": 3806,
      "Ġä¼Ĭ": 3807,
      "éĺ¿æĭīä¼¯": 3808,
      "åĵĪå°Ķ": 3809,
      "å¤±è´¥": 3810,
      "æł¡éķ¿": 3811,
      "æ°ĳä¼Ĺ": 3812,
      "ä¿¡åı·": 3813,
      "è½°": 3814,
      "æŃ¦è£ħ": 3815,
      "è·ĥ": 3816,
      "æĪĲä¸ºäºĨ": 3817,
      "è°ĥæķ´": 3818,
      "çĲĥåľº": 3819,
      "è´ŀ": 3820,
      "é©¬åħĭ": 3821,
      "æ¹ĸåĮĹ": 3822,
      "çİ»": 3823,
      "èģĶåĲĪåĽ½": 3824,
      "æķ°åŃĹ": 3825,
      "åĿĬ": 3826,
      "61": 3827,
      "çļĦæĸ¹å¼ı": 3828,
      "çľĭåĪ°": 3829,
      "åĲĪçī©": 3830,
      "çĳŀåħ¸": 3831,
      "ob": 3832,
      "æĸĩç«ł": 3833,
      "éĻ¨": 3834,
      "èĢĥèĻĳ": 3835,
      "å¯Ħ": 3836,
      "åį¡å°Ķ": 3837,
      "ä¸įå¾Ĺ": 3838,
      "åĨ²çªģ": 3839,
      "å»ºæĪĲ": 3840,
      "é«ĺéĽĦ": 3841,
      "ä¹ı": 3842,
      "è¡¨è¾¾": 3843,
      "æĴ°": 3844,
      "åİĨåı²ä¸Ĭ": 3845,
      "tw": 3846,
      "åĪĹä¸º": 3847,
      "ä¸ŃåĽ½äººæ°ĳè§£æĶ¾åĨĽ": 3848,
      "ä»ĸæĺ¯": 3849,
      "å¢¨è¥¿": 3850,
      "çĦ¦": 3851,
      "ä¼Ĭæĸ¯åħ°": 3852,
      "æĸĩåŃĹ": 3853,
      "æŁĲäºĽ": 3854,
      "ç¿ģ": 3855,
      "èĳĹä½ľ": 3856,
      "äºīè®®": 3857,
      "æĶ¿æĿĥ": 3858,
      "Ġin": 3859,
      "åŁºçĿ£æķĻ": 3860,
      "è¥¿æ´ĭ": 3861,
      "åĮ»åŃ¦": 3862,
      "çīµ": 3863,
      "çĽĹ": 3864,
      "æ³³": 3865,
      "æ´Ĺ": 3866,
      "éĦ": 3867,
      "å°Ĩä¼ļ": 3868,
      "ç§»æ°ĳ": 3869,
      "å½»": 3870,
      "æº¶": 3871,
      "åįģå¹´": 3872,
      "å®Ļ": 3873,
      "ä»¿": 3874,
      "ç¿»è¯ĳ": 3875,
      "å°±è¯»": 3876,
      "è§Ĥå¯Ł": 3877,
      "84": 3878,
      "Ġä¸ŃåĽ½": 3879,
      "èµĲ": 3880,
      "æī°": 3881,
      "çļĦåİŁ": 3882,
      "åĽ½éĺ²": 3883,
      "åı¤ä»£": 3884,
      "éļ§éģĵ": 3885,
      "ç½ļ": 3886,
      "åĲįåįķ": 3887,
      "æ²³çķĶ": 3888,
      "çŃīä¸º": 3889,
      "ang": 3890,
      "äºĭå®ŀ": 3891,
      "å°ī": 3892,
      "ç¥Ŀ": 3893,
      "St": 3894,
      "å§Ĩæĸ¯": 3895,
      "äººæķ°": 3896,
      "æ£®æŀĹ": 3897,
      "åıĶ": 3898,
      "éĩĮäºļ": 3899,
      "è¥¿æĸ¹": 3900,
      "èĮĤ": 3901,
      "ä¹Łåľ¨": 3902,
      "63": 3903,
      "1991": 3904,
      "éĢīåĮº": 3905,
      "ç¨³å®ļ": 3906,
      "å¾Ĺä»¥": 3907,
      "ç½ĳè·¯": 3908,
      "åĬ¨åĬĽ": 3909,
      "Ġä¸Ń": 3910,
      "82": 3911,
      "åıĸæ¶Ī": 3912,
      "éħĴåºĹ": 3913,
      "å´Ķ": 3914,
      "å·§": 3915,
      "å¦ĥ": 3916,
      "å¯¹æīĭ": 3917,
      "åįĥç±³": 3918,
      "å²Ĺ": 3919,
      "å¾ª": 3920,
      "çļĩåĲİ": 3921,
      "æĻ®éģį": 3922,
      "ä¸§": 3923,
      "å¸ĤåĮº": 3924,
      "æĤ¬": 3925,
      "åĽĽä¸ª": 3926,
      "çĵ¦å°Ķ": 3927,
      "åĲĮä¸Ģ": 3928,
      "è½¯ä»¶": 3929,
      "åı¯èĥ½æĺ¯": 3930,
      "å¢¨è¥¿åĵ¥": 3931,
      "83": 3932,
      "å¤ºå¾Ĺ": 3933,
      "74": 3934,
      "ĠåĮĹ": 3935,
      "ess": 3936,
      "Ġ4": 3937,
      "æıĲåįĩ": 3938,
      "éģ¿åħį": 3939,
      "çļĦç¬¬": 3940,
      "è¢ĸ": 3941,
      "ct": 3942,
      "æ°´åŁŁ": 3943,
      "èĢĢ": 3944,
      "å¸Ĥéķ¿": 3945,
      "æ°´åºĵ": 3946,
      "1970": 3947,
      "Ġ2009": 3948,
      "ä¹Łä¼ļ": 3949,
      "71": 3950,
      "åŃ¦æľ¯": 3951,
      "73": 3952,
      "ä¸Ģåº¦": 3953,
      "èĽĭçĻ½": 3954,
      "æŀĿ": 3955,
      "..": 3956,
      "éļ¶å±ŀäºİ": 3957,
      "å¼¥": 3958,
      "ç®±": 3959,
      "èı²å¾ĭ": 3960,
      "æ¬¢è¿İ": 3961,
      "åĥ§": 3962,
      "èı²å¾ĭå®¾": 3963,
      "çĽ¸ä¼¼": 3964,
      "æĪĺåĲİ": 3965,
      "çī¹æ®Ĭ": 3966,
      "å£®": 3967,
      "éĴ¦": 3968,
      "ik": 3969,
      "å°Ķåħ°": 3970,
      "åĪĽéĢł": 3971,
      "åıĳåĶ®": 3972,
      "èĿ¶": 3973,
      "è¿Ľå£«åĩºèº«": 3974,
      "å®¹æĺĵ": 3975,
      "é«ĺéĢŁåħ¬è·¯": 3976,
      "éľ¸": 3977,
      "çŁ¥åĲį": 3978,
      "ä¸ĢåĲĮ": 3979,
      "åĩºæĿ¥": 3980,
      "éĥĬ": 3981,
      "ç®Ģåįķ": 3982,
      "çĸı": 3983,
      "1950": 3984,
      "çļĦç¬¬ä¸Ģ": 3985,
      "æľ¬èº«": 3986,
      "è¡¨éĿ¢": 3987,
      "ä¼łè¯´": 3988,
      "ĠHD": 3989,
      "ä»Ģä¹Ī": 3990,
      "ä¹Łè¢«": 3991,
      "å·¥åİĤ": 3992,
      "ãĢĭï¼Īï¼ī": 3993,
      "èĥģ": 3994,
      "ä¹¾éļĨ": 3995,
      "æī®": 3996,
      "åĽ½åĬ¡éĻ¢": 3997,
      "çŁ¥è¯Ĩ": 3998,
      "å¥¥åľ°åĪ©": 3999,
      "ç¼ĸè¾ĳ": 4000,
      "å£«åħµ": 4001,
      "çļĦæµ·": 4002,
      "æ¹¿": 4003,
      "åıĳçĶµ": 4004,
      "äºļåİĨ": 4005,
      "ä»İèĢĮ": 4006,
      "åľ¨ä¸ŃåĽ½": 4007,
      "çĶ³è¯·": 4008,
      "ç²¤": 4009,
      "è´¢æĶ¿": 4010,
      "è¯¢": 4011,
      "æĶ¿åħļ": 4012,
      "åĲ¨": 4013,
      "ç¢³": 4014,
      "çĽ¾": 4015,
      "æĺ¯ä¹Įåħĭåħ°çļĦæĿĳèĲ½": 4016,
      "åĩºåı£": 4017,
      "hk": 4018,
      "æŀ¢": 4019,
      "åı°åįĹ": 4020,
      "ä¹ĭä¸ĭ": 4021,
      "æĹ¢": 4022,
      "éĺħ": 4023,
      "ä¾¦": 4024,
      "èĢĮæĺ¯": 4025,
      "æ°Ķè±¡": 4026,
      "åĨĽçļĦ": 4027,
      "Ġéķ¿": 4028,
      "ä»£çłģ": 4029,
      "æ±¡": 4030,
      "è¡°": 4031,
      "èº«ä½ĵ": 4032,
      "æ°ĳéĹ´": 4033,
      "å½°": 4034,
      "å¹¶éĿŀ": 4035,
      "åı°é£İ": 4036,
      "ĠçļĦ": 4037,
      "äººå¤§": 4038,
      "å¥ĳ": 4039,
      "æĸ¯å¡Ķ": 4040,
      "all": 4041,
      "éĩĳèŀį": 4042,
      "äººæ°ĳæĶ¿åºľ": 4043,
      "æ¶Īæģ¯": 4044,
      "ä¹ĭä¸Ń": 4045,
      "Ġé¦Ļæ¸¯": 4046,
      "æĺ¯ä¸ĢåĲį": 4047,
      "ĠåŁĥ": 4048,
      "ä¸ĥå¹´": 4049,
      "é²į": 4050,
      "ä¹ĺå®¢": 4051,
      "ĵé£İ": 4052,
      "çĲĥä¼ļ": 4053,
      "å°ıçļĦ": 4054,
      "81": 4055,
      "æµ©": 4056,
      "ä¸įè¶³": 4057,
      "åħ¨éķ¿": 4058,
      "æĳĩ": 4059,
      "é£ĵé£İ": 4060,
      "åįľ": 4061,
      "é¸¿": 4062,
      "ows": 4063,
      "å¼ķåıĳ": 4064,
      "æľīäºº": 4065,
      "æĩ": 4066,
      "æ°¢": 4067,
      "ä¸²": 4068,
      "åĸľæ¬¢": 4069,
      "æ¯ĶåĪ©": 4070,
      "åŃ©åŃĲ": 4071,
      "æ»©": 4072,
      "åĭĥ": 4073,
      "å±Ĭåħ¨åĽ½": 4074,
      "ä¸Ńåħ±ä¸Ńå¤®": 4075,
      "åħĪçĶŁ": 4076,
      "æĭ³": 4077,
      "æ»ļ": 4078,
      "èµĦè®¯": 4079,
      "ok": 4080,
      "éĢ¢": 4081,
      "å®īè£ħ": 4082,
      "æ°´å¹³": 4083,
      "ä¼Ļ": 4084,
      "å¹¿è¥¿": 4085,
      "å¹¶æľª": 4086,
      "è£ħç½®": 4087,
      "Ġå¤©": 4088,
      "åºĬ": 4089,
      "Ġf": 4090,
      "åıĳçİ°äºĨ": 4091,
      "åİĺ": 4092,
      "è¿ħéĢŁ": 4093,
      "åĮĪçīĻ": 4094,
      "æµĵ": 4095,
      "æıĲåĲį": 4096,
      "çİ°åľº": 4097,
      "å®ŀéĻħä¸Ĭ": 4098,
      "ç»ĻäºĪ": 4099,
      "æĶ¾å¼ĥ": 4100,
      "èģĮåĬ¡": 4101,
      "ç¬¼": 4102,
      "å¤§ä½¿": 4103,
      "Ã©": 4104,
      "æİª": 4105,
      "æ¨¡åŀĭ": 4106,
      "åĮĪçīĻåĪ©": 4107,
      "å¤įæĿĤ": 4108,
      "å¹´çĶ±": 4109,
      "åĤħ": 4110,
      "åı¬å¼Ģ": 4111,
      "æįĲ": 4112,
      "up": 4113,
      "art": 4114,
      "åĪ¸": 4115,
      "æķĻåŃ¦": 4116,
      "åĸ·": 4117,
      "Ġç§ĳ": 4118,
      "åħ¬åı¸çļĦ": 4119,
      "èįĴ": 4120,
      "æ·¡æ°´": 4121,
      "éĥ½å¸Ĥ": 4122,
      "çĳŀå£«": 4123,
      "ä¼°è®¡": 4124,
      "æķĻç»ĥ": 4125,
      "è²": 4126,
      "çł²": 4127,
      "å¼ºçĥĪ": 4128,
      "ĠCh": 4129,
      "åįģåŃĹ": 4130,
      "çĪ±å°Ķåħ°": 4131,
      "è¿ĲèĲ¥": 4132,
      "ç»ıåİĨ": 4133,
      "æĹħå®¢": 4134,
      "400": 4135,
      "èĥĮæĻ¯": 4136,
      "èĭ±éĽĦ": 4137,
      "æµħ": 4138,
      "åħ³æ³¨": 4139,
      "åĿ¦åħĭ": 4140,
      "èĥ½éĩı": 4141,
      "å½¼å¾Ĺ": 4142,
      "ä¿¡ä»°": 4143,
      "åī©": 4144,
      "æľīä¸Ģä¸ª": 4145,
      "ä¸»å¼ł": 4146,
      "ç«ŀäºī": 4147,
      "ä¹Ŀå¹´": 4148,
      "150": 4149,
      "ä»¥åīį": 4150,
      "å®ŀè¡Į": 4151,
      "è£ķ": 4152,
      "ç»´å¥ĩ": 4153,
      "çº¦ä¸º": 4154,
      "ç¬¬ä¸ĥ": 4155,
      "æķĻå¸Ī": 4156,
      "1988": 4157,
      "å®īå¾½": 4158,
      "ä¸Ģå®ļ": 4159,
      "å®īæİĴ": 4160,
      "ä¹Łåı¯ä»¥": 4161,
      "å¸ħ": 4162,
      "ä¸ĵéĹ¨": 4163,
      "åı¸é©¬": 4164,
      "åĵ²åŃ¦": 4165,
      "å°ĶçļĦ": 4166,
      "ç§ĳçļĦåħ¶ä¸Ńä¸Ģç§į": 4167,
      "å·¥åħ·": 4168,
      "ice": 4169,
      "èī²åĪĹ": 4170,
      "1989": 4171,
      "å¤·": 4172,
      "é¥Ń": 4173,
      "est": 4174,
      "çİ°ä»»": 4175,
      "æĿĥåĬĽ": 4176,
      "è§ĦåĪĻ": 4177,
      "çļĦåľ°æĸ¹": 4178,
      "æĿ¥åĪ°": 4179,
      "âĢ¦âĢ¦": 4180,
      "æĮĳæĪĺ": 4181,
      "æľĢåĲİä¸Ģ": 4182,
      "æĮīçħ§": 4183,
      "æĭīä¸ģ": 4184,
      "æ¶¦": 4185,
      "åıĳåĩº": 4186,
      "çīłä»¬": 4187,
      "æ¸Ķ": 4188,
      "ç¦ģæŃ¢": 4189,
      "æľĪèĩ³": 4190,
      "å¤ªåŃĲ": 4191,
      "çļĦé«ĺ": 4192,
      "è¿Ļæ¬¡": 4193,
      "å¹´åºķ": 4194,
      "å°Ķçī¹": 4195,
      "æŃ¦æ±ī": 4196,
      "ate": 4197,
      "1960": 4198,
      "éĢĴ": 4199,
      "äº¿åħĥ": 4200,
      "æ³ķåħ°": 4201,
      "ä¸ľæĸ¹": 4202,
      "å¡«": 4203,
      "åĬŀåħ¬å®¤": 4204,
      "åŃ¦ä¼ļ": 4205,
      "æ·®": 4206,
      "è£ħçĶ²": 4207,
      "åŁºåĽł": 4208,
      "åħŃå¹´": 4209,
      "å¤ĸåĽ½": 4210,
      "ä»ªå¼ı": 4211,
      "Ġzh": 4212,
      "é¦ĸåºľ": 4213,
      "ä¾ł": 4214,
      "ä½ľæĽ²": 4215,
      "å°ļä¹¦": 4216,
      "è¯Ħä»·": 4217,
      "å®Įæķ´": 4218,
      "æ·±åľ³": 4219,
      "åºŀ": 4220,
      "åŁĥåıĬ": 4221,
      "çİĩé¢Ĩ": 4222,
      "çģĮ": 4223,
      "æ°ĳä¸»åħļ": 4224,
      "èĩ³å°ĳ": 4225,
      "åĦĴ": 4226,
      "èĩªè¡Į": 4227,
      "æľīæīĢ": 4228,
      "Ġ2007": 4229,
      "åı¦ä¸Ģä¸ª": 4230,
      "æķĪæŀľ": 4231,
      "æĲ¬": 4232,
      "è¡į": 4233,
      "çļĦåİĨåı²": 4234,
      "åĮĹäº¬å¸Ĥ": 4235,
      "çº¢èī²": 4236,
      "ht": 4237,
      "Â°": 4238,
      "æĢĴ": 4239,
      "ä¸ŃéĹ´": 4240,
      "ä¸ĸçķĮæĿ¯": 4241,
      "æ¬£": 4242,
      "çªĹ": 4243,
      "åĲ¸å¼ķ": 4244,
      "åĬ¿åĬĽ": 4245,
      "åħ¶ä½Ļ": 4246,
      "åĵģçīĮ": 4247,
      "åī²": 4248,
      "è¢Ńåĩ»": 4249,
      "é¹°": 4250,
      "ä½ľèĢħ": 4251,
      "è§Ĥæµĭ": 4252,
      "ç§¯æŀģ": 4253,
      "çıĬ": 4254,
      "ï¼Ī\"": 4255,
      "æīįèĥ½": 4256,
      "æŀĦæĪĲ": 4257,
      "æĢ§è´¨": 4258,
      "éĵ¾": 4259,
      "èĢĮè¢«": 4260,
      "äºļåİĨå±±": 4261,
      "å®ĩå®Ļ": 4262,
      "ĠçĻ½": 4263,
      "èĲ¥è¿Ĳ": 4264,
      "å¿ĥçĲĨ": 4265,
      "èĤ¥": 4266,
      "ä¸ŃåĽ½å¤§éĻĨçļĦ": 4267,
      "åĨľæĿĳ": 4268,
      "ä¸Ī": 4269,
      "ä¹ĭåŃĲ": 4270,
      "è´¡çĮ®": 4271,
      "ph": 4272,
      "éķ¿åº¦": 4273,
      "æĪıåī§": 4274,
      "å¸ĪèĮĥ": 4275,
      "åľŁèĢ³": 4276,
      "åĳ½åĲįä¸º": 4277,
      "æĥ¯": 4278,
      "æĹ¶ä»»": 4279,
      "ack": 4280,
      "ä¸ĩåħĥ": 4281,
      "éĿ¢å¯¹": 4282,
      "ç²®": 4283,
      "æĿĥåĪ©": 4284,
      "indows": 4285,
      "ç»ıéªĮ": 4286,
      "ĠæŃ¤": 4287,
      "åĿª": 4288,
      "æ°ĶæĹĭ": 4289,
      "åĪ¶çļĦ": 4290,
      "åľŁèĢ³åħ¶": 4291,
      "çĭĤ": 4292,
      "åłª": 4293,
      "åıĳèµ·": 4294,
      "çļĦéĩįè¦ģ": 4295,
      "éĤ¨": 4296,
      "åµ": 4297,
      "å¸Ĥæ°ĳ": 4298,
      "åĩºçİ°åľ¨": 4299,
      "ain": 4300,
      "çī¹çļĦ": 4301,
      "åŀĤ": 4302,
      "çī¹å¾ģ": 4303,
      "ä»¥èī²åĪĹ": 4304,
      "æ´ģ": 4305,
      "ä»ĳ": 4306,
      "æĸľ": 4307,
      "åįģä¸ī": 4308,
      "è´Ńä¹°": 4309,
      "å½¢çĽ®": 4310,
      "è´´": 4311,
      "å°¸": 4312,
      "å¤«äºº": 4313,
      "å¨ģèĥģ": 4314,
      "æİĪäºĪ": 4315,
      "TV": 4316,
      "æĦŁåĪ°": 4317,
      "æĬµè¾¾": 4318,
      "ä¸įæ»¡": 4319,
      "ill": 4320,
      "å¤ļå¹´": 4321,
      "ç»Ŀå¯¹": 4322,
      "å¨ĺ": 4323,
      "ev": 4324,
      "æł½": 4325,
      "å¤ļç§į": 4326,
      "èĽĽ": 4327,
      "ç¾İæľ¯": 4328,
      "èĲ¨åħĭ": 4329,
      "å¦Ĥä½ķ": 4330,
      "1949": 4331,
      "Ġ9": 4332,
      "æĬ¥å¯¼": 4333,
      "èħ¾": 4334,
      "ç²Ĺ": 4335,
      "å¤§å¥ĸ": 4336,
      "åĲİæľŁ": 4337,
      "èĨľ": 4338,
      "è¸ª": 4339,
      "äºļçĽ®": 4340,
      "å½¦": 4341,
      "æŁĶ": 4342,
      "æİ¥è§¦": 4343,
      "åŀĴ": 4344,
      "æģ°": 4345,
      "Ġæĺ¯": 4346,
      "æĬ½": 4347,
      "å¥¥æŀĹåĮ¹åħĭè¿ĲåĬ¨ä¼ļ": 4348,
      "ï¼Īï¼Įï¼ī": 4349,
      "èģĶç³»": 4350,
      "åįİäºº": 4351,
      "ä¸īè§Ĵ": 4352,
      "æĽ´åĬł": 4353,
      "æĹ¨": 4354,
      "ä¹¡è¯ķ": 4355,
      "åį«çĶŁ": 4356,
      "å¯¨": 4357,
      "æ³°åĽ½": 4358,
      "ç¾İåĨĽ": 4359,
      "ç¢į": 4360,
      "ï¼ļ\"": 4361,
      "ä¸ºæŃ¢": 4362,
      "å°Ŀ": 4363,
      "æ¯Ķå¦Ĥ": 4364,
      "æ¸©åº¦": 4365,
      "èµ¶": 4366,
      "èĪŀåı°": 4367,
      "å½ĵå¹´": 4368,
      "æĬĹæĹ¥": 4369,
      "æ¹ĺ": 4370,
      "1985": 4371,
      "ä¸ĢæĿ¡": 4372,
      "èĥİ": 4373,
      "1945": 4374,
      "åŃ¤": 4375,
      "æ¼ĶåĶ±ä¼ļ": 4376,
      "ä»ĭç»į": 4377,
      "å¯¹è±¡": 4378,
      "åĲ¾": 4379,
      "çĬ¶åĨµ": 4380,
      "é¢Ĩè¢ĸ": 4381,
      "åľ°çĤ¹": 4382,
      "è¢«è®¤ä¸ºæĺ¯": 4383,
      "éĻ¢éķ¿": 4384,
      "180": 4385,
      "éĩĩåıĸ": 4386,
      "å¢ŀéķ¿": 4387,
      "çħ¤": 4388,
      "æĤī": 4389,
      "Ġ!": 4390,
      "éĹ½": 4391,
      "ge": 4392,
      "è¿Ļæł·çļĦ": 4393,
      "å¹´æĹ¶": 4394,
      "åĴĮåħ¶ä»ĸ": 4395,
      "æľ´": 4396,
      "æĺŁçŃīä¸º": 4397,
      "åĨĴ": 4398,
      "éĻĢ": 4399,
      "çĭĦ": 4400,
      "åĨħéĺģ": 4401,
      "åħ¥ä¾µ": 4402,
      "å¹³æĸ¹ç±³": 4403,
      "ĠIn": 4404,
      "ä¼łæĴŃ": 4405,
      "åĽ¢éĺŁ": 4406,
      "\"ï¼Į": 4407,
      "è¾ĥä¸º": 4408,
      "æŃ£å¸¸": 4409,
      "è¾©": 4410,
      "åİŁåŃĲ": 4411,
      "éķĩä¸ĭè¾ĸä»¥ä¸ĭåľ°åĮº": 4412,
      "å¾Īå¿«": 4413,
      "èĬ±åĽŃ": 4414,
      "æłĩå¿Ĺ": 4415,
      "èĢĮè¨Ģ": 4416,
      "ä¸Ńæľī": 4417,
      "æĺ¯é¦Ļæ¸¯": 4418,
      "ä¸ĵå®¶": 4419,
      "||": 4420,
      "çĻ»è¿Ľå£«": 4421,
      "é©¬å°Ķ": 4422,
      "å¹¿ä¸ľçľģ": 4423,
      "æĿĨ": 4424,
      "åĬłçĽŁ": 4425,
      "å»Ĭ": 4426,
      "Ġ10": 4427,
      "ç¿ł": 4428,
      "åĩłä¸ª": 4429,
      "èĭıæł¼åħ°": 4430,
      "è¾¹çķĮ": 4431,
      "çĸ«": 4432,
      "å·¥äºº": 4433,
      "å¹´å¤ıåŃ£": 4434,
      "çĲĥåŃ£": 4435,
      "1986": 4436,
      "æ²³æµģ": 4437,
      "çŁ¥åİ¿": 4438,
      "å²ģçļĦ": 4439,
      "çĲī": 4440,
      "ç»ĵæĿŁåĲİ": 4441,
      "åįĹæĸ¹": 4442,
      "éħįåĲĪ": 4443,
      "å®ļä¸º": 4444,
      "åĬłåĪ©": 4445,
      "ãĢĬãĢĭ": 4446,
      "Ġ2006": 4447,
      "è´«": 4448,
      "åģ¥åº·": 4449,
      "ä¿Ŀç½Ĺ": 4450,
      "ç¼ºä¹ı": 4451,
      "é¾Ł": 4452,
      "å¸ĥæĭī": 4453,
      "çĻ»éĻĨ": 4454,
      "å¦Ī": 4455,
      "å©Ĩ": 4456,
      "çļĦåıĳå±ķ": 4457,
      "æĽ´åĲįä¸º": 4458,
      "èģĺ": 4459,
      "ä»£è¡¨å¤§ä¼ļ": 4460,
      "ä½ıå®ħ": 4461,
      "æīĢæľīçļĦ": 4462,
      "æĺİæ²»": 4463,
      "ç¨¿": 4464,
      "ell": 4465,
      "åĽłç´ł": 4466,
      "å¤ªç©º": 4467,
      "åİĭåĬĽ": 4468,
      "æİ¨åĬ¨": 4469,
      "our": 4470,
      "æŁıæŀĹ": 4471,
      "ç¡ķå£«": 4472,
      "æ°ĶåĢĻ": 4473,
      "ãĢģãĢģ": 4474,
      "çĶŁçļĦ": 4475,
      "åĢĻéĢī": 4476,
      "åĬ¨ä½ľ": 4477,
      "eb": 4478,
      "éľĢæ±Ĥ": 4479,
      "æĦıä¹ī": 4480,
      "æı¡": 4481,
      "qu": 4482,
      "èĢĹ": 4483,
      "æĽ´å¤ļ": 4484,
      "çĻ½èī²": 4485,
      "ity": 4486,
      "æ½Ń": 4487,
      "è¿Ł": 4488,
      "åĳ¨è¾¹": 4489,
      "å²ģæĹ¶": 4490,
      "å¾ĭå¸Ī": 4491,
      "ĠæĽ¾": 4492,
      "å¸ĥé²ģ": 4493,
      "éĤ£äºĽ": 4494,
      "æµĭéĩı": 4495,
      "çĲĨäºĭ": 4496,
      "æºĲäºİ": 4497,
      "åįģäºĶ": 4498,
      "è§ĤçĤ¹": 4499,
      "å£¤": 4500,
      "æłĩä¸º": 4501,
      "éĢĨ": 4502,
      "å¤§åİ¦": 4503,
      "æĭīå¤«": 4504,
      "æĶ¶è´Ń": 4505,
      "æĺİæľĿæĶ¿æ²»äººçī©": 4506,
      "å¤§èĩ´": 4507,
      "ä¸ĭæĿ¥": 4508,
      "çģ«å±±": 4509,
      "ç§ĺå¯Ĩ": 4510,
      "ran": 4511,
      "çħ§çīĩ": 4512,
      "1984": 4513,
      "åĩĢ": 4514,
      "çľŁæŃ£": 4515,
      "å½ĵå±Ģ": 4516,
      "çļĦä½ľåĵģ": 4517,
      "èĲ¨æĸ¯": 4518,
      "çĪ¶æ¯į": 4519,
      "æĴ¤éĶĢ": 4520,
      "æľºçļĦ": 4521,
      "åĮ»çĸĹ": 4522,
      "æī¾åĪ°": 4523,
      "é¡¾éĹ®": 4524,
      "ç»ıçĲĨ": 4525,
      "æ±Łè¥¿": 4526,
      "ä¸ĩç¾İåħĥ": 4527,
      "ï¼ħ": 4528,
      "95": 4529,
      "å¤§åĮº": 4530,
      "åĵ¥ä¼¦": 4531,
      "Ġ6": 4532,
      "è£ħå¤ĩ": 4533,
      "è¯´æĺİ": 4534,
      "1987": 4535,
      "ç²¹": 4536,
      "å§Ķä¹¦è®°": 4537,
      "ip": 4538,
      "æľºåĻ¨": 4539,
      "çĭĹ": 4540,
      "èĸĦ": 4541,
      "éĵº": 4542,
      "ç¦ħ": 4543,
      "çĽ¸ä¿¡": 4544,
      "è²Į": 4545,
      "ian": 4546,
      "åį³ä½¿": 4547,
      "åĲ¯çĶ¨": 4548,
      "ive": 4549,
      "åľ¨æĹ¥æľ¬": 4550,
      "ç¥ŀç»ı": 4551,
      "é¼»": 4552,
      "çļĦåĽ½å®¶": 4553,
      "ĠæŀĹ": 4554,
      "éĺĶ": 4555,
      "æŃ»åĲİ": 4556,
      "Ġç»´": 4557,
      "å¯Ĵ": 4558,
      "éĻįä½İ": 4559,
      "åħ¬ä¼Ĺ": 4560,
      "å¼łä¸ĵè¾ĳ": 4561,
      "å¹´åīį": 4562,
      "æĬ¢": 4563,
      "é¦ĸåħĪ": 4564,
      "Ġæµ·": 4565,
      "åľ°åĽ¾": 4566,
      "ç»ıåħ¸": 4567,
      "æĦıè¯Ĩ": 4568,
      "ĠæĿ¨": 4569,
      "äººåĴĮ": 4570,
      "åĿĿ": 4571,
      "åĩºæĪĺ": 4572,
      "å¾·å°Ķ": 4573,
      "åĬłå·ŀ": 4574,
      "çģ«ç®Ń": 4575,
      "æıŃ": 4576,
      "ĠY": 4577,
      "ç¤¾ä¼ļä¸»ä¹ī": 4578,
      "Ġ5": 4579,
      "ä¸Ľ": 4580,
      "åħ¨éĿ¢": 4581,
      "ä¹ĲéĺŁ": 4582,
      "ç»Īäºİ": 4583,
      "ĠåĴĮ": 4584,
      "ï¼ı": 4585,
      "æįŁå¤±": 4586,
      "é²¶": 4587,
      "é£Łçī©": 4588,
      "å¹´é¾Ħ": 4589,
      "ä¹łæĢ§": 4590,
      "çİĽä¸½": 4591,
      "çļĦå¤ĸ": 4592,
      "çļĦéĹ®é¢ĺ": 4593,
      "é©¾é©¶": 4594,
      "åİĨä»»": 4595,
      "OS": 4596,
      "æĶ¹åĸĦ": 4597,
      "ä¿ĺ": 4598,
      "å¿į": 4599,
      "éĺŁä¼į": 4600,
      "æĹ¥æĬ¥": 4601,
      "é±¼ç±»": 4602,
      "æ··åĲĪ": 4603,
      "å¤§æ¡¥": 4604,
      "åıĤè°ĭ": 4605,
      "åĬ³åĬ¨": 4606,
      "çŁ©": 4607,
      "Ġæł¼": 4608,
      "åĬŀçĲĨ": 4609,
      "è±¡å¾ģ": 4610,
      "çļĦä¸ī": 4611,
      "çļĦå±±": 4612,
      "ç§įæĹı": 4613,
      "IC": 4614,
      "éŃĤ": 4615,
      "å§¬": 4616,
      "çĸ¾çĹħ": 4617,
      "å°ĳå¥³": 4618,
      "èıĬ": 4619,
      "åıĤåĬłäºĨ": 4620,
      "ç³»ç»ŁçļĦ": 4621,
      "å¼¦": 4622,
      "åĲİèĢħ": 4623,
      "éº¦åħĭ": 4624,
      "èĥ¸": 4625,
      "ä¸¾è¡ĮçļĦ": 4626,
      "åĲĮçĽŁ": 4627,
      "åħ¥åı£": 4628,
      "è´µæĹı": 4629,
      "æĺ¯å¾·åĽ½": 4630,
      "åįİçĽĽ": 4631,
      "åıĺå¾Ĺ": 4632,
      "æ¯Ķä¾ĭ": 4633,
      "å¼ºè°ĥ": 4634,
      "é©±éĢĲ": 4635,
      "åįĹæŀģæ´²": 4636,
      "1983": 4637,
      "å§ļ": 4638,
      "ä¿®æĶ¹": 4639,
      "å±Ģéķ¿": 4640,
      "äº¨åĪ©": 4641,
      "å»¶ä¼¸": 4642,
      "æĹĹä¸ĭ": 4643,
      "æµ·å³¡": 4644,
      "æģĲæĢ": 4645,
      "åĲĲ": 4646,
      "ä»£çĲĨ": 4647,
      "æ³¡": 4648,
      "æĻļä¸Ĭ": 4649,
      "åįİçĽĽé¡¿": 4650,
      "Ġèĩª": 4651,
      "äºĨè§£": 4652,
      "åį°å°¼": 4653,
      "æĳĦå½±": 4654,
      "1982": 4655,
      "æĮª": 4656,
      "åħ¶å®ŀ": 4657,
      "æī®æ¼Ķ": 4658,
      "åľ°çĲĨ": 4659,
      "ä¸Ģå®¶": 4660,
      "éĥ¨èĲ½": 4661,
      "èµ·ä¹ī": 4662,
      "éĥ¨çļĦ": 4663,
      "æ±ª": 4664,
      "ç¨į": 4665,
      "è¢«è¿«": 4666,
      "å·ŀçļĦä¸Ģä¸ªå¸Ĥéķĩ": 4667,
      "å²Ľå±¿": 4668,
      "Ġä»İ": 4669,
      "ä½įäºİä¸ŃåĽ½": 4670,
      "å¹´ç¾İåĽ½": 4671,
      "å¥ĸé¡¹": 4672,
      "ç©ºä¸Ń": 4673,
      "å¹¶å°Ĩ": 4674,
      "é¸£": 4675,
      "åłĨ": 4676,
      "åĲĽä¸»": 4677,
      "è¦ĨçĽĸ": 4678,
      "ä¹ĭæĪĺ": 4679,
      "èµĭ": 4680,
      "å¤©ä½ĵ": 4681,
      "çĴĥ": 4682,
      "æľĢå¤ļ": 4683,
      "è¾¾æĪĲ": 4684,
      "BS": 4685,
      "ç¿Į": 4686,
      "åľ¨å¤§": 4687,
      "å°±ä¼ļ": 4688,
      "å°¼äºļå·ŀ": 4689,
      "è¯·æ±Ĥ": 4690,
      "æł½åŁ¹": 4691,
      "éĵŃ": 4692,
      "ä¸įä»ħ": 4693,
      "Ġåı°æ¹¾": 4694,
      "æª": 4695,
      "æī¶": 4696,
      "ich": 4697,
      "çļĦæĹ¶éĹ´": 4698,
      "ong": 4699,
      "éĶĻè¯¯": 4700,
      "çĪĨçĤ¸": 4701,
      "å¯¹æŃ¤": 4702,
      "éĢ»": 4703,
      "å½¢è±¡": 4704,
      "çĶµè¯Ŀ": 4705,
      "ç¢İ": 4706,
      "åº·çĨĻ": 4707,
      "éģµ": 4708,
      "åĬŀäºĭ": 4709,
      "600": 4710,
      "æµ·æ´ĭ": 4711,
      "å¤§å¤ļ": 4712,
      "éĽĢ": 4713,
      "åĩºéģĵ": 4714,
      "çļĦæķħäºĭ": 4715,
      "å¸¦æĿ¥": 4716,
      "ä¸»è¦ģæĺ¯": 4717,
      "è¥¿åįĹéĥ¨": 4718,
      "è¯ı": 4719,
      "é¢ĩ": 4720,
      "è¡¨æĺİ": 4721,
      "se": 4722,
      "çĭ¼": 4723,
      "æ£ĺ": 4724,
      "èŃ¦æĸ¹": 4725,
      "åĨĽåĮº": 4726,
      "æ³ķæ¡Ī": 4727,
      "é¢ĨåľŁ": 4728,
      "ry": 4729,
      "æ¯ĶèµĽä¸Ń": 4730,
      "ä¼ª": 4731,
      "åĩºå¸Ń": 4732,
      "èĭĳ": 4733,
      "æĸ°çĸĨ": 4734,
      "å¤©çļĩ": 4735,
      "ĠæĻ®": 4736,
      "sp": 4737,
      "è¿Ĳä½ľ": 4738,
      "å¸ĥå°Ķ": 4739,
      "è¯ķéªĮ": 4740,
      "åĪ·": 4741,
      "ä¸Ļ": 4742,
      "ä¸Ģåº§": 4743,
      "åıĹä¼¤": 4744,
      "æŃĩ": 4745,
      "æī©å¤§": 4746,
      "1900": 4747,
      "ç©ºæ°Ķ": 4748,
      "çĻĮ": 4749,
      "è®¡ç®Ĺæľº": 4750,
      ")ãĢģ": 4751,
      "çļĦåŁİéķĩ": 4752,
      "çĲ¼": 4753,
      "æĶ¿åºľçļĦ": 4754,
      "å±±è¥¿": 4755,
      "å¸¦é¢Ĩ": 4756,
      "åħĨ": 4757,
      "çŁ¶": 4758,
      "çĶŁæ´»ä¹łæĢ§": 4759,
      "èĦı": 4760,
      "æ¶īåıĬ": 4761,
      "çªģçĦ¶": 4762,
      "éĺª": 4763,
      "åŁĥå°Ķ": 4764,
      "èĬĴ": 4765,
      "è´£ä»»": 4766,
      "æ·±åº¦": 4767,
      "ç¯®çĲĥ": 4768,
      "Ġä»¥ä¸ĭ": 4769,
      "å¹´åĪĿ": 4770,
      "æĪĺçķ¥": 4771,
      "æ¶µ": 4772,
      "äº²çİĭ": 4773,
      "éĢļè½¦": 4774,
      "if": 4775,
      "å®¶çļĦ": 4776,
      "æµ·å¤ĸ": 4777,
      "åĽ½å®¶çļĦ": 4778,
      "é¢ľèī²": 4779,
      "é©¬æĭī": 4780,
      "ç§°ä½ľ": 4781,
      "ä¸°å¯Į": 4782,
      "Ġå½ĵ": 4783,
      "ä»¥å¤ĸ": 4784,
      "æĪªèĩ³": 4785,
      "æī§å¯¼": 4786,
      "åĮĸçŁ³": 4787,
      "æĬķéĻį": 4788,
      "åıł": 4789,
      "èĲ¨å°Ķ": 4790,
      "å¥İ": 4791,
      "çĽ¸æ¯Ķ": 4792,
      "åľ¨é¦Ļæ¸¯": 4793,
      "BC": 4794,
      "çļĦå·¥ä½ľ": 4795,
      "åı¸æ³ķ": 4796,
      "èķ¨": 4797,
      "Ġde": 4798,
      "çĶŁæ´»ä¹łæĢ§ä¸įæĺİ": 4799,
      "Ġ7": 4800,
      "å¹¶ä»¥": 4801,
      "lay": 4802,
      "AM": 4803,
      "åī§æĥħ": 4804,
      "ç¬¦åĲĪ": 4805,
      "éĤ£éĩĮ": 4806,
      "åľ¨åħ¶": 4807,
      "åİ¿çļĦ": 4808,
      "ä¸ľåĮĹéĥ¨": 4809,
      "æ·ĺ": 4810,
      "ç¡«": 4811,
      "åľ¨è¯¥": 4812,
      "åįĴ": 4813,
      "å¯¹å¤ĸ": 4814,
      "è¥¿åĮĹéĥ¨": 4815,
      "ç½¢": 4816,
      "å¹¶åħ¥": 4817,
      "éĹ´çļĦ": 4818,
      "ä¼Ĺå¤ļ": 4819,
      "æĿĢæŃ»": 4820,
      "äººåı£æĻ®æŁ¥": 4821,
      "åľ¨äºİ": 4822,
      "åĬłå¼º": 4823,
      "å±Ī": 4824,
      "é£Łåĵģ": 4825,
      "Ġæĸ¯": 4826,
      "é»Ħéĩĳ": 4827,
      "ç»ĦæĪĲçļĦ": 4828,
      "ĠãĢĮ": 4829,
      "èĦĬ": 4830,
      "ant": 4831,
      "åĲįä¹ī": 4832,
      "æĮĩå¯¼": 4833,
      "åģ·": 4834,
      "ä¹Łå°±æĺ¯": 4835,
      "800": 4836,
      "åĮĹæĸ¹": 4837,
      "ä¼ļåĳĺ": 4838,
      "å§ľ": 4839,
      "æ¶Į": 4840,
      "è½¬çļĦ": 4841,
      "æ·»": 4842,
      "åħ¼ä»»": 4843,
      "ä¾ĿçĦ¶": 4844,
      "æºĲèĩª": 4845,
      "AR": 4846,
      "ä¸İåħ¶ä»ĸ": 4847,
      "å¾·æĭī": 4848,
      "åĲı": 4849,
      "æĥŁ": 4850,
      "éĢīä¸º": 4851,
      "ä¸¹éº¦": 4852,
      "å¾ĹçŁ¥": 4853,
      "èīºäºº": 4854,
      "ä»·æł¼": 4855,
      "èįĲ": 4856,
      "æŃ¥åħµ": 4857,
      "Ġa": 4858,
      "å·®å¼Ĥ": 4859,
      "æłı": 4860,
      "äºĭæķħ": 4861,
      "æĶ¿åįı": 4862,
      "ä¸¤æ¬¡": 4863,
      "éħ¶": 4864,
      "å¥Ķ": 4865,
      "å£°æĺİ": 4866,
      "âĶ": 4867,
      "å¯¹åºĶ": 4868,
      "åįģåĽĽ": 4869,
      "ä¸Ģæ®µ": 4870,
      "ä¸»è¦ģçļĦ": 4871,
      "und": 4872,
      "éĺ¶çº§": 4873,
      "åİŁåĲį": 4874,
      "å¤§åŃ¦çļĦ": 4875,
      "åĬĿ": 4876,
      "å±±ä¸ľçľģ": 4877,
      "åħ´è¶£": 4878,
      "æ¬¡å¹´": 4879,
      "æĹ¶æľŁçļĦ": 4880,
      "æıĲåĪ°": 4881,
      "ä¸Ĭæľī": 4882,
      "çľŁå®ŀ": 4883,
      "åıī": 4884,
      "è®·": 4885,
      "åı¯èĥ½ä¼ļ": 4886,
      "åĪĽå»º": 4887,
      "æīĵåĩ»": 4888,
      "ä½ľåĩº": 4889,
      "æī«": 4890,
      "æģĲæĢĸ": 4891,
      "å¯¹æĬĹ": 4892,
      "å±ķç¤º": 4893,
      "è¯ģæį®": 4894,
      "io": 4895,
      "å¯¸": 4896,
      "æĬ¼": 4897,
      "æĶ¹éĢł": 4898,
      "è¾°": 4899,
      "å§»": 4900,
      "åŁİåĮº": 4901,
      "æ¯Ľæ³½": 4902,
      "çĶŁéķ¿äºİ": 4903,
      "èĢĮæĪĲ": 4904,
      "åĽ´ç»ķ": 4905,
      "ç¥Ģ": 4906,
      "1979": 4907,
      "ç¡®è®¤": 4908,
      "âĶĢ": 4909,
      "å¤§è¥¿æ´ĭ": 4910,
      "éĻĨç»Ń": 4911,
      "1000": 4912,
      "éªĳå£«": 4913,
      "ä¸ºäºº": 4914,
      "å£°éŁ³": 4915,
      "CD": 4916,
      "è½°çĤ¸": 4917,
      "è¿ĳå¹´": 4918,
      "åľ°éĿ¢": 4919,
      "åĬłæĭī": 4920,
      "Ġç¾İåĽ½": 4921,
      "ç¼ħçĶ¸": 4922,
      "å±ł": 4923,
      "èĴ¸": 4924,
      "ä¿ĿåŃĺ": 4925,
      "åĽºå®ļ": 4926,
      "ç§ĳåŃ¦éĻ¢": 4927,
      "ç¬¬åħ«": 4928,
      "ç£¨": 4929,
      "åĽ½æ°ĳæĶ¿åºľ": 4930,
      "æĬĹè®®": 4931,
      "120": 4932,
      "âĨ": 4933,
      "]]": 4934,
      "åıĤèĢĥ": 4935,
      "èµ°åĲĳ": 4936,
      "å¤ķ": 4937,
      "éĢ®": 4938,
      "åį¡æĸ¯": 4939,
      "å¾Ģå¾Ģ": 4940,
      "ç°": 4941,
      "é¹¤": 4942,
      "çİ°ä»Ĭ": 4943,
      "å¼ıçļĦ": 4944,
      "çĬ¯ç½ª": 4945,
      "ä¹¦éĻ¢": 4946,
      "ä¹Łä¸į": 4947,
      "åı²ä¸Ĭ": 4948,
      "è¶ĭ": 4949,
      "çŃ¾ç½²": 4950,
      "ä¸ĸçķĮä¸Ĭ": 4951,
      "éĽĩ": 4952,
      "åĹ£": 4953,
      "åħ«å¹´": 4954,
      "è´µå·ŀ": 4955,
      "ä»Ĭå¤©": 4956,
      "äºļåİĨå±±å¤§": 4957,
      "çĶ¨ä½ľ": 4958,
      "éĢ¼": 4959,
      "ä¸Ĭå¸Ĥ": 4960,
      "å±±åĮº": 4961,
      "ä¼ļè¯ķ": 4962,
      "åĺ´": 4963,
      "ä»ĩ": 4964,
      "æ¯Ľæ³½ä¸ľ": 4965,
      "AC": 4966,
      "çĶ±æŃ¤": 4967,
      "åįµ": 4968,
      "ä¸ºä¸ŃåĽ½": 4969,
      "åĲĪæĪĲ": 4970,
      "åĶĲæľĿ": 4971,
      "ver": 4972,
      "èµĦéĩĳ": 4973,
      "åħĭéĩĮ": 4974,
      "ï¼Īï¼Ľ": 4975,
      "ort": 4976,
      "[[": 4977,
      "é»ĳèī²": 4978,
      "ç¨£": 4979,
      "éĩıçļĦ": 4980,
      "çĮĽ": 4981,
      "å¹´åĪ°": 4982,
      "ä¸İåħ¶": 4983,
      "èħĲ": 4984,
      "Ġäºİ": 4985,
      "èĬ¬åħ°": 4986,
      "éĻķè¥¿": 4987,
      "éĨĴ": 4988,
      "ä½ĨçĶ±äºİ": 4989,
      "æĲº": 4990,
      "å¼ºåº¦": 4991,
      "é³ŀ": 4992,
      "åĪĹåħ¥": 4993,
      "ç§įåŃĲ": 4994,
      "å®īå¾·": 4995,
      "Ġ8": 4996,
      "ç¬¦åı·": 4997,
      "åĽĽå·Ŀçľģ": 4998,
      "èº«ä¸º": 4999,
      "åĳ¨åĽ´": 5000,
      "æĿ°åħĭ": 5001,
      "ä¸Ĭè¿°": 5002,
      "äº¦æĺ¯": 5003,
      "æľĪåĪĿ": 5004,
      "èĢ¶ç¨£": 5005,
      "æ¯ķä¸ļåĲİ": 5006,
      "éĿĴå²Ľ": 5007,
      "ä¸Ĭæµ·å¸Ĥ": 5008,
      "éļıåį³": 5009,
      "æĸĩçĮ®": 5010,
      "è®¾äºİ": 5011,
      "å¹³åİŁ": 5012,
      "ä¿ĥè¿Ľ": 5013,
      "è®¤è¯Ĩ": 5014,
      "éĤ£ä¹Ī": 5015,
      "éĢļè®¯": 5016,
      "éŁµ": 5017,
      "è½¬æį¢": 5018,
      "ä¸ĭéĻį": 5019,
      "æĪĲæľ¬": 5020,
      "ä¾Ŀæį®": 5021,
      "ä¸Ĭä¸ĭ": 5022,
      "éĢĢåĩº": 5023,
      "äº¿ç¾İåħĥ": 5024,
      "èĸĽ": 5025,
      "è½¬åĲĳ": 5026,
      "è½¬ç§»": 5027,
      "åĨ¬åŃ£": 5028,
      "çĹħæ¯Ĵ": 5029,
      "Ġä»ĸ": 5030,
      "æĸ¤": 5031,
      "01": 5032,
      "98": 5033,
      "å«Į": 5034,
      "æľĪçĲĥ": 5035,
      "åĨĽåĽ¢": 5036,
      "æľĿå»·": 5037,
      "å¯»æī¾": 5038,
      "åĵ¥ä¼¦æ¯Ķäºļ": 5039,
      "çłģå¤´": 5040,
      "åŁİåł¡": 5041,
      "éĢĢä¼ĳ": 5042,
      "æīĢè°ĵ": 5043,
      "çĽ¸äºĴ": 5044,
      "Al": 5045,
      "çļĦä¸Ń": 5046,
      "æĪĲäºĨ": 5047,
      "ber": 5048,
      "çī¹æĭī": 5049,
      "'s": 5050,
      "åĽ½éĻħæľºåľº": 5051,
      "åıĳæĺİ": 5052,
      "1978": 5053,
      "å¨ĥ": 5054,
      "çĬ¬": 5055,
      "éķ¿æ±Ł": 5056,
      "æŁ´æ²¹": 5057,
      "éĢļéģĵ": 5058,
      "92": 5059,
      "çī¹åĪ«æĺ¯": 5060,
      "æ¶Ĥ": 5061,
      "åı¯ä»¥åľ¨": 5062,
      "one": 5063,
      "èį£èªī": 5064,
      "éĻ¨çŁ³": 5065,
      "å£°ç§°": 5066,
      "çļĦåĲİ": 5067,
      "åĩī": 5068,
      "èĤĸ": 5069,
      "åĪºåı²": 5070,
      "åĨľæ°ĳ": 5071,
      "ly": 5072,
      "ä¼ļéķ¿": 5073,
      "åħįè´¹": 5074,
      "èİ«æĸ¯ç§ĳ": 5075,
      "çĽĳçĿ£": 5076,
      "ä»¥åĮĹ": 5077,
      "åĬ«": 5078,
      "ç¤ģ": 5079,
      "æĮªå¨ģ": 5080,
      "ä¸įåĪ°": 5081,
      "éĩĬæĶ¾": 5082,
      "éķĩåĮº": 5083,
      "æ»¡è¶³": 5084,
      "çļĦåħ³ç³»": 5085,
      "è¾¾å°Ķ": 5086,
      "Ġ2005": 5087,
      "ä»»èģĮ": 5088,
      "çİĩä¸º": 5089,
      "åĳ¨æľŁ": 5090,
      "éļĭ": 5091,
      "ç§ģäºº": 5092,
      "çº§èģĶèµĽ": 5093,
      "æľĢè¿ĳ": 5094,
      "ä¸ĬåįĪ": 5095,
      "çļĦäºĭ": 5096,
      "çļĦä¸¤": 5097,
      "æ°Ķåİĭ": 5098,
      "ç¼ĸåī§": 5099,
      "ç¢Ł": 5100,
      "èį¯çī©": 5101,
      "å·ŀåºľ": 5102,
      "è®ºæĸĩ": 5103,
      "å¥¹åľ¨": 5104,
      "æĭ¼": 5105,
      "éļ¾ä»¥": 5106,
      "è¯Ĭ": 5107,
      "åħ¥éĢī": 5108,
      "çļĦè®¾è®¡": 5109,
      "ss": 5110,
      "è¿ĲçĶ¨": 5111,
      "éĺŁéķ¿": 5112,
      "è¿ĻéĩĮ": 5113,
      "ä¼ĺç§Ģ": 5114,
      "Ġç¬¬": 5115,
      "ä¾ĭåŃĲ": 5116,
      "ER": 5117,
      "èĩ³äºİ": 5118,
      "ĠåĲ´": 5119,
      "å®ŀéªĮå®¤": 5120,
      "ä¸ľåįĹéĥ¨": 5121,
      "åģ¿": 5122,
      "èµĦäº§": 5123,
      "éĻĦè¿ĳçļĦ": 5124,
      "å°¼åħĭ": 5125,
      "åĪĨå¸ĥåľ¨": 5126,
      "çŃ¾è®¢": 5127,
      "é¢Ħè®¡": 5128,
      "é¢Ĩå¯¼äºº": 5129,
      "å«ģ": 5130,
      "æĥħæĬ¥": 5131,
      "éĩįå¤§": 5132,
      "ä¸īä¸ĸ": 5133,
      "å¼Ģè®¾": 5134,
      "åħĭæĭī": 5135,
      "åįģä¹Ŀ": 5136,
      "äºĮäºº": 5137,
      "æīģ": 5138,
      "åĲĮæĢ§": 5139,
      "æķ´ä½ĵ": 5140,
      "çļĦæĥħåĨµä¸ĭ": 5141,
      "Windows": 5142,
      "éĢ®æįķ": 5143,
      "åĳ¨å¹´": 5144,
      "åĲĪçº¦": 5145,
      "æ±Łèĭıçľģ": 5146,
      "æ¶Īè´¹": 5147,
      "çĶĺèĤĥ": 5148,
      "å°Ŀè¯ķ": 5149,
      "æ°¯": 5150,
      "åįĳ": 5151,
      "åĩĿ": 5152,
      "å¥¶": 5153,
      "æīĢå±ŀ": 5154,
      "å°Ĩé¢Ĩ": 5155,
      "ä¼½": 5156,
      "ä¼ĺåĬ¿": 5157,
      "ç¥ł": 5158,
      "æĽ´ä¸º": 5159,
      "çŁĽ": 5160,
      "Ġä¸İ": 5161,
      "æĦıè§ģ": 5162,
      "åİ¢": 5163,
      "åį±æľº": 5164,
      "æĤ²": 5165,
      "1981": 5166,
      "éĺ²å¾¡": 5167,
      "æ³ķå®ĺ": 5168,
      "æĦĪ": 5169,
      "åĽ°éļ¾": 5170,
      "åĬªåĬĽ": 5171,
      "çķĻä¸ĭ": 5172,
      "æĽ°": 5173,
      "ç«ĭåį³": 5174,
      "ï¼īï¼Ľ": 5175,
      "æĺ¯åįĹæŀģæ´²": 5176,
      "In": 5177,
      "ä¼ĬæľĹ": 5178,
      "æ³¨åĨĮ": 5179,
      "éĹª": 5180,
      "çī¹éĩĮ": 5181,
      "åħĭèİ±": 5182,
      "åĨ°å·Ŀ": 5183,
      "96": 5184,
      "Ġå¤ļ": 5185,
      "åĪĻä¸º": 5186,
      "åľ¨ä¸Ģ": 5187,
      "æ£ĢæŁ¥": 5188,
      "å¤įåħ´": 5189,
      "å¦ĩå¥³": 5190,
      "ä¸Ĭéĺµ": 5191,
      "åĮ»çĶŁ": 5192,
      "æµĻæ±Łçľģ": 5193,
      "æĸ¹è¨Ģ": 5194,
      "ï¼Įï¼īï¼Į": 5195,
      "æĹ¥æ²»": 5196,
      "èŁ¹": 5197,
      "ç¬¬äºĮæ¬¡ä¸ĸçķĮå¤§æĪĺ": 5198,
      "æ´¾éģ£": 5199,
      "æĳĨ": 5200,
      "æķ¢": 5201,
      "Ġæ³¢": 5202,
      "çŁ³æ²¹": 5203,
      "åŃ¦å£«": 5204,
      "äº§çĶŁçļĦ": 5205,
      "çİ¯å½¢": 5206,
      "åľºçļĦ": 5207,
      "å¦Ļ": 5208,
      "æµ·éģĵ": 5209,
      "ç¥¨æĪ¿": 5210,
      "ä¹īå¤§åĪ©": 5211,
      "åİŁå§ĭ": 5212,
      "åĪ©æĸ¯": 5213,
      "è¡ĮçļĦ": 5214,
      "è¿ĽæŃ¥": 5215,
      "1920": 5216,
      "å±ŀçļĦæ¤įçī©": 5217,
      "ä¸ĭä»¤": 5218,
      "å°ıåŀĭ": 5219,
      "æİĴè¡Į": 5220,
      "èĢĥè¯ķ": 5221,
      "çĭŃ": 5222,
      "èĢĮä¸į": 5223,
      "ä»¥åįĹ": 5224,
      "éºŁ": 5225,
      "éĵ¸": 5226,
      "åĢº": 5227,
      "æĪĲéĥ½": 5228,
      "åĩºçīĪç¤¾": 5229,
      "è¾½å®ģ": 5230,
      "éĵĥ": 5231,
      "å¼ķç§į": 5232,
      "ĠâĢľ": 5233,
      "åħ¸ç¤¼": 5234,
      "ah": 5235,
      "è¿¦": 5236,
      "å¼ķåħ¥": 5237,
      "è¥¿åħ°": 5238,
      "åħ³éĹŃ": 5239,
      "æĶ¹åĲįä¸º": 5240,
      "éĨĩ": 5241,
      "äº¤æį¢": 5242,
      "ä»¥ä¸º": 5243,
      "æİĺ": 5244,
      "æĸ¯é¡¿": 5245,
      "ç¢§": 5246,
      "éħįéŁ³": 5247,
      "åĪĨåĪ«æĺ¯": 5248,
      "èĩªæĿĢ": 5249,
      "ä»ĸä¸İ": 5250,
      "Ġå¼Ĺ": 5251,
      "å±ķè§Ī": 5252,
      "å¤§å¸Ī": 5253,
      "ont": 5254,
      "é¼İ": 5255,
      "åĪĨåĪ«ä¸º": 5256,
      "éĢĢå½¹": 5257,
      "å·¡åĽŀ": 5258,
      "å¿Ļ": 5259,
      "è¥¿å®ī": 5260,
      "ç§ĳåŃ¦å®¶": 5261,
      "è¯ŃçļĦ": 5262,
      "åį¡æĭī": 5263,
      "å°¼è¥¿äºļ": 5264,
      "æ¡Īä»¶": 5265,
      "èĤĮ": 5266,
      "IN": 5267,
      "ç¼ĸçłģ": 5268,
      "åĳĬè¯ī": 5269,
      "ä¸Ģèĩ´": 5270,
      "Ġh": 5271,
      "å§Ĭ": 5272,
      "å¼ĢéĢļ": 5273,
      "å¾¡åı²": 5274,
      "Ġç±³": 5275,
      "çĶ±äººå·¥": 5276,
      "åħļçļĦ": 5277,
      "man": 5278,
      "çļĦçĶµå½±": 5279,
      "ä¿Ŀå®Ī": 5280,
      "ç¿Ķ": 5281,
      "æķ°çļĦ": 5282,
      "ä¾ĽåºĶ": 5283,
      "å°¹": 5284,
      "çĶ«": 5285,
      "åĨħæĪĺ": 5286,
      "oh": 5287,
      "éĽį": 5288,
      "ãĥ»": 5289,
      "è¢ĭ": 5290,
      "åĿļæĮģ": 5291,
      "å¤§è§Ħæ¨¡": 5292,
      "åľ°è´¨": 5293,
      "èĩªèº«": 5294,
      "æł¼ä¸º": 5295,
      "çļĦå¥³": 5296,
      "åĽ½åĨĽ": 5297,
      "åĪĨéħį": 5298,
      "æĺŁç³»": 5299,
      "é²Ī": 5300,
      "93": 5301,
      "åİĺç±³": 5302,
      "åĢĻéĢīäºº": 5303,
      "å¼ķç§įæł½åŁ¹": 5304,
      "çĶŁæĢģ": 5305,
      "Ġæľī": 5306,
      "èĦĤé²¤": 5307,
      "çī¹èī²": 5308,
      "ä¸ĳ": 5309,
      "èµĦæľ¬": 5310,
      "97": 5311,
      "ä¾¨": 5312,
      "æĬĳ": 5313,
      "Ġst": 5314,
      "çłĤ": 5315,
      "å¾·åįİ": 5316,
      "å®¶äºº": 5317,
      "Ġèĭı": 5318,
      "å¿½": 5319,
      "åı·çļĦ": 5320,
      "åįĩçº§": 5321,
      "çĶ±äººå·¥å¼ķç§įæł½åŁ¹": 5322,
      "åĲ¹": 5323,
      "ä¿ĿéĻ©": 5324,
      "ç»ĻäºĨ": 5325,
      "Ġåīį": 5326,
      "æŃ¥æŀª": 5327,
      "nt": 5328,
      "èĴĻçī¹": 5329,
      "ue": 5330,
      "ST": 5331,
      "å®°": 5332,
      "åĲīæŀĹ": 5333,
      "å¹½": 5334,
      "1946": 5335,
      "åĲĦä¸ª": 5336,
      "æłĭ": 5337,
      "ĠåĵĪ": 5338,
      "åľŃ": 5339,
      "åħ¬åħĥåīį": 5340,
      "1958": 5341,
      "ç©·": 5342,
      "ĠèĻ½çĦ¶": 5343,
      "å¸¦æľī": 5344,
      "å·²æľī": 5345,
      "Ġä¸º": 5346,
      "åĬŀäºĭå¤Ħ": 5347,
      "è®°å¿Ĩ": 5348,
      "æīĭæľº": 5349,
      "äºĶæľĪ": 5350,
      "å±ħæ°ĳçĤ¹": 5351,
      "éĢĤåĲĪ": 5352,
      "è§£æķ£": 5353,
      "AN": 5354,
      "æĹ¬": 5355,
      "è¥¿çıŃçīĻè¯Ń": 5356,
      "éĤª": 5357,
      "å¤©æĸĩåı°": 5358,
      "åĪ©çĽĬ": 5359,
      "çĤī": 5360,
      "ç©Ĩæĸ¯": 5361,
      "çłĸ": 5362,
      "æĦŁæŁĵ": 5363,
      "å¼Łå¼Ł": 5364,
      "åİŁä½ı": 5365,
      "çİ»çĴĥ": 5366,
      "ä¸ŃåĽ½çļĦ": 5367,
      "ä»İæŃ¤": 5368,
      "ign": 5369,
      "ff": 5370,
      "äº²èĩª": 5371,
      "æĸ¹ä¾¿": 5372,
      "å®ĥæĺ¯": 5373,
      "çİ°å®ŀ": 5374,
      "åĪĨè£Ĥ": 5375,
      "æĪ¿å±ĭ": 5376,
      "æ³ķçļĦ": 5377,
      "è°Ń": 5378,
      "æ´ĽæĿī": 5379,
      "å·²è¢«": 5380,
      "è´©": 5381,
      "æī©å±ķ": 5382,
      "åįĩä¸º": 5383,
      "eg": 5384,
      "æĬ±": 5385,
      "å¹³éĿ¢": 5386,
      "åŁºéĩĳä¼ļ": 5387,
      "æ±Ŀ": 5388,
      "éķ¿å®ĺ": 5389,
      "åĺīéĿĸ": 5390,
      "è¯ģå®ŀ": 5391,
      "ç¨»": 5392,
      "æĦıä¸º": 5393,
      "ew": 5394,
      "æłª": 5395,
      "çĻ¾ä¸ĩ": 5396,
      "ä»ĸè¿ĺ": 5397,
      "ä¿ĦåĽ½": 5398,
      "æģŃ": 5399,
      "æĸĲ": 5400,
      "åħ¬çĪµ": 5401,
      "å¤§å°ı": 5402,
      "èĪ±": 5403,
      "åī¯ä¸»ä»»": 5404,
      "æĺ¯ä¸Ģåº§": 5405,
      "çļĦè¯Ŀ": 5406,
      "æ´ĽæĿīçŁ¶": 5407,
      "au": 5408,
      "æİ¥æĽ¿": 5409,
      "è®¾å®ļ": 5410,
      "ON": 5411,
      "ä»ĸè¢«": 5412,
      "æ±°": 5413,
      "å·´å°Ķ": 5414,
      "åĬłåĪ©ç¦ı": 5415,
      "å¤§ä¼Ĺ": 5416,
      "åıĤéĢī": 5417,
      "ĠX": 5418,
      "åĩºæ¼Ķ": 5419,
      "æ»ķ": 5420,
      "1930": 5421,
      "åħ³éĶ®": 5422,
      "è¶³çĲĥä¿±ä¹Ĳéĥ¨": 5423,
      "å©ļå§»": 5424,
      "05": 5425,
      "åĳĪçİ°": 5426,
      "Ġä¸Ģ": 5427,
      "èĮħ": 5428,
      "åĽŀå½Ĵ": 5429,
      "åįłåľ°": 5430,
      "æ´Ľåħĭ": 5431,
      "ç»¿èī²": 5432,
      "åĮĸåĲĪçī©": 5433,
      "åŃ¦çļĦ": 5434,
      "æ±Ģ": 5435,
      "éĽĨåĲĪ": 5436,
      "è®²è¿°": 5437,
      "åĸľåī§": 5438,
      "æİ¨å¹¿": 5439,
      "ï¼Īï¼īãĢĤ": 5440,
      "èĮµ": 5441,
      "æ¼Ķå¥ı": 5442,
      "åĲ»": 5443,
      "èĵ¬": 5444,
      "å¤¹": 5445,
      "åľ¨åı°æ¹¾": 5446,
      "ç»³": 5447,
      "å»ĸ": 5448,
      "Ġä¸Ĭ": 5449,
      "çĽĨ": 5450,
      "ç±»çļĦ": 5451,
      "ä»ĸä¹Ł": 5452,
      "åıªè¦ģ": 5453,
      "æĸĩæĺİ": 5454,
      "åī§éĻ¢": 5455,
      "çº¤": 5456,
      "åı¤åħ¸": 5457,
      "ç¦»åŃĲ": 5458,
      "åī§æľ¬": 5459,
      "1940": 5460,
      "æŃ§ä¹ī": 5461,
      "åİŁåĪĻ": 5462,
      "ä½Ľç½Ĺ": 5463,
      "Ġ17": 5464,
      "æĺ¯åĽłä¸º": 5465,
      "å¤§èµĽ": 5466,
      "æ¡ĥåĽŃ": 5467,
      "çĤ¼": 5468,
      "ä¼łåªĴ": 5469,
      "èĻ¹": 5470,
      "äºĴçĽ¸": 5471,
      "âĢĻ": 5472,
      "ä¸Īå¤«": 5473,
      "çİĭåŃĲ": 5474,
      "å·«": 5475,
      "å¥¥å°Ķ": 5476,
      "æĴŀåĩ»": 5477,
      "çĽ´å¾Ħ": 5478,
      "åĲĦåĽ½": 5479,
      "Ġto": 5480,
      "ys": 5481,
      "AP": 5482,
      "ä¸ĢåĪĩ": 5483,
      "åĳĺå·¥": 5484,
      "å¼¯": 5485,
      "æľ¬åľŁ": 5486,
      "94": 5487,
      "åĲĦèĩª": 5488,
      "è¾ĵåħ¥": 5489,
      "æŃ¦å¸Ŀ": 5490,
      "åı¯è§ģ": 5491,
      "ä»£è¡¨åĽ¢": 5492,
      "ç½Ĺé©¬å°¼äºļ": 5493,
      "ä¸¸": 5494,
      "å´ĸ": 5495,
      "éĺ»æŃ¢": 5496,
      "å¸¸è§ģçļĦ": 5497,
      "åħĭå°Ķ": 5498,
      "å»ºçŃĳçī©": 5499,
      "æĶ¹åĪ¶": 5500,
      "éģĹäº§": 5501,
      "æ³¢æĸ¯": 5502,
      "ç»Ħå»º": 5503,
      "è½¯ä½ĵ": 5504,
      "éĤĳ": 5505,
      "èĥĨ": 5506,
      "å¯®": 5507,
      "çĪµå£«": 5508,
      "çŃīçº§": 5509,
      "è¶³çĲĥè¿ĲåĬ¨åĳĺ": 5510,
      "è½¬çļĦå°ıè¡ĮæĺŁ": 5511,
      "Ġä¹Į": 5512,
      "æ¯ħ": 5513,
      "çĶ¨éĢĶ": 5514,
      "Ġèī¾": 5515,
      "Ġ12": 5516,
      "æĪĳçļĦ": 5517,
      "ä¿®æŃ£": 5518,
      "åĽŀåºĶ": 5519,
      "æĭĸ": 5520,
      "ç«Ł": 5521,
      "çĽ®åīįå°ļæľª": 5522,
      "æ®ĸæ°ĳåľ°": 5523,
      "æĺ¯åı°æ¹¾": 5524,
      "ĠèĲ¨": 5525,
      "å¢ŀå¼º": 5526,
      "æĥ¨": 5527,
      "æĹħè¡Į": 5528,
      "ä»»åĳ½ä¸º": 5529,
      "ep": 5530,
      "éĤ»è¿ĳ": 5531,
      "åĨħèĴĻåı¤": 5532,
      "è¹Ī": 5533,
      "åīª": 5534,
      "åį±éĻ©": 5535,
      "1975": 5536,
      "æĢ§èĥ½": 5537,
      "å°¼å°Ķ": 5538,
      "çıĢ": 5539,
      "åħĭç½Ĺ": 5540,
      "å·¥ç¨ĭå¸Ī": 5541,
      "æĽ´æĸ°": 5542,
      "å¤§å¹ħ": 5543,
      "çªģçł´": 5544,
      "æīĵç®Ĺ": 5545,
      "çļĦæĪĲåĳĺ": 5546,
      "ä¸Ńè¢«": 5547,
      "æĶ¯æµģ": 5548,
      "ä¸»åĬŀ": 5549,
      "åĪĨç¦»": 5550,
      "ä¸¤åĽ½": 5551,
      "éĿłè¿ĳ": 5552,
      "çļĦéŁ³ä¹Ĳ": 5553,
      "ä¿®å»º": 5554,
      "é¾Ļæ±Ł": 5555,
      "åıĳåĬ¨æľº": 5556,
      "æİªæĸ½": 5557,
      "91": 5558,
      "éĦĤ": 5559,
      "æľĢä½İ": 5560,
      "Ġn": 5561,
      "å¯ĵ": 5562,
      "æ¸Ĭ": 5563,
      "èĢĮéĿŀ": 5564,
      "ç«ĭæĸ¹": 5565,
      "èįĨ": 5566,
      "åĻ¨çļĦ": 5567,
      "çĶŁéķ¿äºİæµ·æĭĶ": 5568,
      "ä¸ŃæľŁ": 5569,
      "ç±³çļĦåľ°åĮº": 5570,
      "çķĻåľ¨": 5571,
      "éĺ³å¸Ĥ": 5572,
      "çĽ´éļ¶": 5573,
      "éŃģ": 5574,
      "çī¹å®ļ": 5575,
      "Ġæľ±": 5576,
      "éĴ»": 5577,
      "åĬ©çĲĨ": 5578,
      "æł¹å»·": 5579,
      "å½ķéŁ³": 5580,
      "å°Ħåĩ»": 5581,
      "ä»¤äºº": 5582,
      "å´©": 5583,
      "ç§ĳå¤«": 5584,
      "ark": 5585,
      "NBA": 5586,
      "åĽĬ": 5587,
      "çĶŁåŃĺ": 5588,
      "æĽ¾äºİ": 5589,
      "Ġäºļ": 5590,
      "å½ĵå¤©": 5591,
      "âĨĴ": 5592,
      "åº¦çļĦ": 5593,
      "ç®¡çĲĨå±Ģ": 5594,
      "éļ¶å±ŀ": 5595,
      "è±«": 5596,
      "åıĻåĪ©äºļ": 5597,
      "é©¬éĩĮ": 5598,
      "æ³¢ç½Ĺ": 5599,
      "å¹³æĸ¹åįĥç±³": 5600,
      "Ġåĳ¨": 5601,
      "å¾Īå¤§": 5602,
      "æ²ª": 5603,
      "çłĶåıĳ": 5604,
      "åĨĽå®ĺ": 5605,
      "æĺ¯ä¸º": 5606,
      "ite": 5607,
      "æĬĵ": 5608,
      "å»ºç«ĭäºĨ": 5609,
      "å·ŀåĪºåı²": 5610,
      "ç¥ŀè¯Ŀ": 5611,
      "åĲ«æľī": 5612,
      "å®¶ä¸Ń": 5613,
      "æľ¬åľ°": 5614,
      "æĸĭ": 5615,
      "è¥Ħ": 5616,
      "çĶŁæĪĲ": 5617,
      "å¾ĹåĪ°äºĨ": 5618,
      "è¢«è§Ĩä¸º": 5619,
      "èĳ£äºĭéķ¿": 5620,
      "Ġå¾·": 5621,
      "æ¶ĪæŃ§ä¹ī": 5622,
      "èħº": 5623,
      "å¤©ä¸ĭ": 5624,
      "ä¸Ģçº§": 5625,
      "è©¹å§Ĩæĸ¯": 5626,
      "km": 5627,
      "éĹ¸": 5628,
      "å¾ĹåĲį": 5629,
      "åĪ¶å®ļ": 5630,
      "æ´¾åĩº": 5631,
      "Ġæ²Ļ": 5632,
      "æĸĩèīº": 5633,
      "æ°¨": 5634,
      "çĢ": 5635,
      "Ġé»ĳ": 5636,
      "Ġåı¤": 5637,
      "æľ¬ç«Ļ": 5638,
      "çļĦæ°´": 5639,
      "æĹ¥æľŁ": 5640,
      "å¸ĥèİ±": 5641,
      "æľįå½¹": 5642,
      "ä½įäºİè¯¥åĽ½è¥¿éĥ¨": 5643,
      "ĠçŁ³": 5644,
      "è¾Ł": 5645,
      "ric": 5646,
      "æİ¥æĶ¶": 5647,
      "åī¯ä¸»å¸Ń": 5648,
      "æľĢä¸º": 5649,
      "ä¹ĭä¸º": 5650,
      "æ·ĺæ±°": 5651,
      "åĬłå°Ķ": 5652,
      "æĹ©å¹´": 5653,
      "æİ¥ä»»": 5654,
      "å¥¥è¿Ĳä¼ļ": 5655,
      "åįģä¸ĥ": 5656,
      "ĠæĹ¥æľ¬": 5657,
      "æĺİç¡®": 5658,
      "ä½įäºİè¯¥çľģ": 5659,
      "å¯¹æĸ¹": 5660,
      "Ġä¸ĭ": 5661,
      "åħ¬å®ī": 5662,
      "åľ°å¸¦": 5663,
      "çĽ®åīįå°ļæľªçĶ±äººå·¥å¼ķç§įæł½åŁ¹": 5664,
      "å»¶éķ¿": 5665,
      "ä¼ļæľī": 5666,
      "éĥģ": 5667,
      "èĭ¹": 5668,
      "æĿŃå·ŀ": 5669,
      "åĲīå°Ķ": 5670,
      "å¾ªçİ¯": 5671,
      "æĪĺå£«": 5672,
      "èľĤ": 5673,
      "ä¹¡ä¸ĭè¾ĸä»¥ä¸ĭåľ°åĮº": 5674,
      "æł¡åĽŃ": 5675,
      "æĪĲéķ¿": 5676,
      "GC": 5677,
      "ĠèĢĮ": 5678,
      "Ġ20": 5679,
      "æĦıå¿Ĺ": 5680,
      "æĺ¯ä¿Ħç½Ĺæĸ¯": 5681,
      "ĠThe": 5682,
      "1956": 5683,
      "å·¢": 5684,
      "åĴ¨": 5685,
      "åķĨåĵģ": 5686,
      "é¸Ń": 5687,
      "èĢģå¸Ī": 5688,
      "èħĶ": 5689,
      "æĸ¹ç¨ĭ": 5690,
      "æĪĲç«ĭçļĦ": 5691,
      "è¾¨": 5692,
      "éĽ¾": 5693,
      "åħ¶ä¸Ńä¸Ģ": 5694,
      "å¹´åĴĮ": 5695,
      "çļĦåĦ¿åŃĲ": 5696,
      "åŁĭ": 5697,
      "ĠçĽ®åīį": 5698,
      "ä¸¤èĢħ": 5699,
      "çĲĨæĥ³": 5700,
      "çĽ¸åħ³çļĦ": 5701,
      "å°¤åħ¶æĺ¯": 5702,
      "è¤": 5703,
      "1948": 5704,
      "ç§ĺä¹¦éķ¿": 5705,
      "æł¡åĮº": 5706,
      "åģ¶åĥı": 5707,
      "å½¢æĢģ": 5708,
      "ä¸Ĭåįĩ": 5709,
      "æĺ¯ä¸Ģéĥ¨": 5710,
      "è¾Ĳå°Ħ": 5711,
      "çİ¯å½¢å±±": 5712,
      "åĢ¡": 5713,
      "çİ°åľ¨çļĦ": 5714,
      "åĽ½å®¶éĺŁ": 5715,
      "è°¦": 5716,
      "éĽ·æĸ¯": 5717,
      "ey": 5718,
      "æķĪåºĶ": 5719,
      "æĸ©": 5720,
      "è´§å¸ģ": 5721,
      "åĮĹç¾İ": 5722,
      "ond": 5723,
      "åı¦ä¸Ģæĸ¹éĿ¢": 5724,
      "Ġ2004": 5725,
      "çĪ±æĥħ": 5726,
      "1976": 5727,
      "æ¶Īå¤±": 5728,
      "Ġå¸ķ": 5729,
      "æľīèĳĹ": 5730,
      "å±Ĥæ°´åŁŁ": 5731,
      "åŃ¦ç§ĳ": 5732,
      "æ±īæĹı": 5733,
      "èĭ¯": 5734,
      "å¾·çļĦ": 5735,
      "å®ģæ³¢": 5736,
      "æ´»è·ĥ": 5737,
      "æ¸¯åı£": 5738,
      "çĻ»ä¸Ĭ": 5739,
      "èĪĮ": 5740,
      "ord": 5741,
      "å¸Ĥä¸Ńå¿ĥ": 5742,
      "åıįæĺł": 5743,
      "åĴĸ": 5744,
      "åħĭéĩĮæĸ¯": 5745,
      "åĮħåĽ´": 5746,
      "åī§åľº": 5747,
      "æıĲä¾ĽäºĨ": 5748,
      "åģľè½¦": 5749,
      "åħ·ä½ĵ": 5750,
      "ä»ĬæĹ¥": 5751,
      "å¤©çĦ¶": 5752,
      "é£ŁçĶ¨": 5753,
      "æĮĩç¤º": 5754,
      "åĿĩä¸º": 5755,
      "æĹłè®º": 5756,
      "éĶĢéĩı": 5757,
      "æľĪçļĦ": 5758,
      "éķ¿è¾¾": 5759,
      "åįģäºĮå¹´": 5760,
      "éªĳåħµ": 5761,
      "è·¯åı£": 5762,
      "ire": 5763,
      "äºīåıĸ": 5764,
      "èĪŀè¹Ī": 5765,
      "æ¸¸æ³³": 5766,
      "1973": 5767,
      "1947": 5768,
      "ç©Ĩæĸ¯æŀĹ": 5769,
      "å¾·åĨĽ": 5770,
      "ens": 5771,
      "ç§°åĳ¼": 5772,
      "06": 5773,
      "å¯¼å¼¹": 5774,
      "éĽĮ": 5775,
      "09": 5776,
      "éķ¿æ²Ļ": 5777,
      "çļĦæĸ¹æ³ķ": 5778,
      "çº³ç²¹": 5779,
      "æĢģåº¦": 5780,
      "æī£": 5781,
      "åıĹæ¬¢è¿İ": 5782,
      "åŁ¹åħ»": 5783,
      "é©¬æĸ¯": 5784,
      "åľ¨ä»ĸ": 5785,
      "åĬ²": 5786,
      "åħ¶ä¸ŃåĮħæĭ¬": 5787,
      "çļĦä¸ĢäºĽ": 5788,
      "ÃĹ": 5789,
      "æ´¾çļĦ": 5790,
      "ä¸ŀ": 5791,
      "éĵİ": 5792,
      "è¶³çĲĥéĺŁ": 5793,
      "éĵģè·¯è½¦ç«Ļ": 5794,
      "ä¸Ģè¯į": 5795,
      "æĦıæĢĿ": 5796,
      "ä¸ĩåİĨ": 5797,
      "çĶµæ°Ķ": 5798,
      "å±±åİ¿": 5799,
      "æ¯ĶåĪ©æĹ¶": 5800,
      "åĭĭç«ł": 5801,
      "æĮĩå®ļ": 5802,
      "Ġèİ«": 5803,
      "Ġg": 5804,
      "é©³": 5805,
      "æİĪæĿĥ": 5806,
      "èĤł": 5807,
      "åİŁæĿ¥": 5808,
      "èĴ²": 5809,
      "å¸ĤæĶ¿åºľ": 5810,
      "çļĦåĲĮ": 5811,
      "ç»´æĬ¤": 5812,
      "æłĹ": 5813,
      "è¾ĸåĮº": 5814,
      "æİ¢éĻ©": 5815,
      "é¢ģå¥ĸ": 5816,
      "æķĻå®Ĺ": 5817,
      "ä¸¤å¹´": 5818,
      "æ¯ıå¤©": 5819,
      "æļĸ": 5820,
      "å¹´æĹ¶çļĦäººåı£ä¸ºäºº": 5821,
      "éĹ²": 5822,
      "Ġv": 5823,
      "èĪŁ": 5824,
      "Ġéĺ¿å°Ķ": 5825,
      "Ġ16": 5826,
      "æĢķ": 5827,
      "æĿĢå®³": 5828,
      "åĩºçİ°äºĨ": 5829,
      "çīµå¼ķ": 5830,
      "äººæ°ĳä»£è¡¨å¤§ä¼ļ": 5831,
      "1955": 5832,
      "åĲ§": 5833,
      "å¥ĭ": 5834,
      "æĹ¥äºİ": 5835,
      "ä¸¤ä½į": 5836,
      "æĬ«": 5837,
      "é¢ĳçİĩ": 5838,
      "çŁ®": 5839,
      "æŃ£ç¡®": 5840,
      "åĪĨæĶ¯": 5841,
      "ith": 5842,
      "å¤ļåĪ©äºļ": 5843,
      "åĲ¸æĶ¶": 5844,
      "è¾¹å¢ĥ": 5845,
      "è¥¿æĸ¯": 5846,
      "ç¼©åĨĻ": 5847,
      "ä¸įæķĮ": 5848,
      "è´¨çĸĳ": 5849,
      "ä»¥ä¸ĬçļĦ": 5850,
      "è°ĪåĪ¤": 5851,
      "åī¯ä¹¦è®°": 5852,
      "çĵ¶": 5853,
      "åĲŀ": 5854,
      "ast": 5855,
      "åĪĻåľ¨": 5856,
      "éķ¿åŃĲ": 5857,
      "ä¸ĢèģĮ": 5858,
      "é«ĺè¾¾": 5859,
      "åŃķ": 5860,
      "åºŁéĻ¤": 5861,
      "1937": 5862,
      "åĽ½éģĵ": 5863,
      "é¦ĸä¸ª": 5864,
      "åĿĤ": 5865,
      "ore": 5866,
      "æĺİæĺŁ": 5867,
      "æľ¬äºº": 5868,
      "sh": 5869,
      "1972": 5870,
      "æĺŃåĴĮ": 5871,
      "éĺ¿æł¹å»·": 5872,
      "ãĢĤãĢĤ": 5873,
      "ä¿Ŀéļľ": 5874,
      "å¤©åłĤ": 5875,
      "ä¸ºæŃ¤": 5876,
      "éĤ±": 5877,
      "èĢķ": 5878,
      "çĽ¸åĲĮçļĦ": 5879,
      "æĮĸ": 5880,
      "çĲĨè§£": 5881,
      "äºļåĨĽ": 5882,
      "07": 5883,
      "\"ãĢĤ": 5884,
      "uc": 5885,
      "JR": 5886,
      "1941": 5887,
      "æ¼ł": 5888,
      "åĶĩ": 5889,
      "å½¢çĬ¶": 5890,
      "æī§æĶ¿": 5891,
      "éħ·": 5892,
      "æĿ¥è¶Ĭ": 5893,
      "æĳĩæ»ļ": 5894,
      "æĵħ": 5895,
      "äº¥": 5896,
      "åį³ä½į": 5897,
      "åĲ¯åĬ¨": 5898,
      "æĭ¨": 5899,
      "èĸĩ": 5900,
      "å¹²éĥ¨": 5901,
      "èĢĮä¸įæĺ¯": 5902,
      "éĻª": 5903,
      "èķ¾": 5904,
      "ight": 5905,
      "æĺ¯è¥¿çıŃçīĻ": 5906,
      "æĺ¯æĦıå¤§åĪ©": 5907,
      "èĦ¸": 5908,
      "çļĦæĶ¯æĮģ": 5909,
      "åĪĹåĩº": 5910,
      "æł¼æĭī": 5911,
      "ç½Ĺå¾·": 5912,
      "æº¯": 5913,
      "èģª": 5914,
      "æļ´åĬĽ": 5915,
      "çĲĨå·¥": 5916,
      "èį¡": 5917,
      "èľľ": 5918,
      "çļĦç¬¬äºĮ": 5919,
      "PS": 5920,
      "çĽĳå¯Ł": 5921,
      "åľ£ç»ı": 5922,
      "ng": 5923,
      "èĭ±å°º": 5924,
      "å¹¶ä¸İ": 5925,
      "è´§è¿Ĳ": 5926,
      "èĢĲ": 5927,
      "çļĦæĥħåĨµ": 5928,
      "åĭŁ": 5929,
      "æ²³åįĹçľģ": 5930,
      "hant": 5931,
      "æ¡£æ¡Ī": 5932,
      "æľ¬ç§ĳ": 5933,
      "ä¸»åľº": 5934,
      "å¼Ģå±ķ": 5935,
      "åįĹéĿŀ": 5936,
      "é¢Ī": 5937,
      "å¤§å¤«": 5938,
      "æĦıå¤ĸ": 5939,
      "æļ¨": 5940,
      "åĸĩ": 5941,
      "æĸ¹éĿ¢çļĦ": 5942,
      "700": 5943,
      "è¶ĬæĿ¥è¶Ĭ": 5944,
      "éĺ²æŃ¢": 5945,
      "å¿ĺ": 5946,
      "åĩºåĶ®": 5947,
      "åĨĻä½ľ": 5948,
      "åľ¨ä¸Ģèµ·": 5949,
      "å¤ļå°Ķ": 5950,
      "æĹ¥åĲİ": 5951,
      "åĿĲæłĩä¸º": 5952,
      "her": 5953,
      "èģĶåĲĪä¼ļ": 5954,
      "æİ¨è¿Ľ": 5955,
      "1952": 5956,
      "Ġå°ıè¡ĮæĺŁåĪĹè¡¨": 5957,
      "éĥ½åľ¨": 5958,
      "æľŃ": 5959,
      "1974": 5960,
      "å®ļå±ħ": 5961,
      "åīĬ": 5962,
      "èľĢ": 5963,
      "ä¸¤åĲį": 5964,
      "1966": 5965,
      "æĴ°åĨĻ": 5966,
      "èĹ»": 5967,
      "ä»ķ": 5968,
      "èĤ¡ä»½æľīéĻĲåħ¬åı¸": 5969,
      "æĭ±": 5970,
      "æĢ§åĪ«": 5971,
      "çĥŃå¸¦é£İæļ´": 5972,
      "Ġçº¢": 5973,
      "æ¸ł": 5974,
      "æĭĨéĻ¤": 5975,
      "08": 5976,
      "éĥ¨çĶµå½±": 5977,
      "å¤ļäºº": 5978,
      "æ¯Ĺ": 5979,
      "å§ĳ": 5980,
      "åĻ¶": 5981,
      "ç¬¬ä¹Ŀ": 5982,
      "ä½Ĩä»ĸ": 5983,
      "è´§çī©": 5984,
      "èĬĤåº¦": 5985,
      "æĬµæĬĹ": 5986,
      "åĨ³è®®": 5987,
      "é²¸": 5988,
      "éĩĳçīĮ": 5989,
      "æĺ¯ä¸ª": 5990,
      "ect": 5991,
      "Ġåįļ": 5992,
      "æ²¿æµ·": 5993,
      "ç¢±": 5994,
      "åĲĮæĹ¶ä¹Ł": 5995,
      "éĩıåŃĲ": 5996,
      "è£ħé¥°": 5997,
      "å··": 5998,
      "éĥ¨éĥ¨éķ¿": 5999,
      "äººæ°ĳå¸ģ": 6000,
      "åİ¿çļĦä¸Ģä¸ª": 6001,
      "ä¸ºåħ¶": 6002,
      "æ¨¡æĭŁ": 6003,
      "äºĭå®ŀä¸Ĭ": 6004,
      "å¹³è¡¡": 6005,
      "å®Įå·¥": 6006,
      "ai": 6007,
      "åįĹç¾İæ´²": 6008,
      "æ²ĥå°Ķ": 6009,
      "ox": 6010,
      "äºĶä¸ª": 6011,
      "èĭ¹æŀľ": 6012,
      "æĸ°ç«¹": 6013,
      "è°¥": 6014,
      "æľīè®¸å¤ļ": 6015,
      "çļĦæĥħ": 6016,
      "ç»´æĸ¯": 6017,
      "ç´§æĢ¥": 6018,
      "æľºåĪ¶": 6019,
      "ä¹¦ç±į": 6020,
      "å®£ç§°": 6021,
      "å¿ħè¦ģ": 6022,
      "éĻ¨çŁ³åĿĳ": 6023,
      "åİŁä½ıæ°ĳ": 6024,
      "éĩĳå±±": 6025,
      "é£İéĻ©": 6026,
      "åıĳè¡ĮçļĦ": 6027,
      "å¡Ķå°Ķ": 6028,
      "åĩºåıĳ": 6029,
      "èĥ½æºĲ": 6030,
      "æĢ»è£ģ": 6031,
      "æīĭæ®µ": 6032,
      "å¸½": 6033,
      "æĶ¶èĹı": 6034,
      "ç»ıçĶ±": 6035,
      "è·¯æĺĵæĸ¯": 6036,
      "éģ¥": 6037,
      "åįĩä»»": 6038,
      "åħ¬æĸ¤": 6039,
      "ç¾İåĽ½çļĦ": 6040,
      "é»Ħèī²": 6041,
      "è§ĦèĮĥ": 6042,
      "1977": 6043,
      "Ġæ¢ħ": 6044,
      "çĲª": 6045,
      "ä¸¤ä¾§": 6046,
      "VD": 6047,
      "èģĮä½į": 6048,
      "ä¿Ŀè¯ģ": 6049,
      "è¾¹ç¼ĺ": 6050,
      "ð«": 6051,
      "è·Łéļı": 6052,
      "éĩįè§Ĩ": 6053,
      "ç¤ºå¨ģ": 6054,
      "è±¹": 6055,
      "Ġè´Ŀ": 6056,
      "å¤§éĩıçļĦ": 6057,
      "son": 6058,
      "åĪ°çļĦ": 6059,
      "1968": 6060,
      "æ·ĳ": 6061,
      "è®¾è®¡çļĦ": 6062,
      "åľĨå½¢": 6063,
      "æĹ¥æŃ£å¼ı": 6064,
      "å¯¹åħ¶": 6065,
      "æĹłäºº": 6066,
      "are": 6067,
      "çĽĳçĭ±": 6068,
      "äºĮæĪĺ": 6069,
      "èĥº": 6070,
      "èĭıä¸¹": 6071,
      "1954": 6072,
      "é¢ģåıĳ": 6073,
      "ä¸ĭäºĨ": 6074,
      "åĤ¬": 6075,
      "æ£Ģå¯Ł": 6076,
      "è¶³å¤Ł": 6077,
      "çĽ¸å½ĵäºİ": 6078,
      "ç¾İåĽ½äºº": 6079,
      "æ³ķè¯Ń": 6080,
      "æ¸¯åħĥ": 6081,
      "ä¼ļä¸Ĭ": 6082,
      "æĶ¶è§Ĩ": 6083,
      "æĤ£èĢħ": 6084,
      "æľ¬çº¿": 6085,
      "ä»£çļĦ": 6086,
      "çŃ¾çº¦": 6087,
      "éĶĲ": 6088,
      "é¦ĸæĴŃ": 6089,
      "æİł": 6090,
      "å¥¹ä»¬": 6091,
      "Go": 6092,
      "æ³¢å°Ķ": 6093,
      "æķĮäºº": 6094,
      "AS": 6095,
      "æĢĢçĸĳ": 6096,
      "ãĥ¼": 6097,
      "è¿Ļé¡¹": 6098,
      "å¸¸å¸¸": 6099,
      "ä¼łæķĻ": 6100,
      "04": 6101,
      "1965": 6102,
      "éĩĩè®¿": 6103,
      "é¼ĵåĬ±": 6104,
      "ä¼ļè¢«": 6105,
      "å½±åĥı": 6106,
      "ä¸»ä¹īèĢħ": 6107,
      "è¯Ĺäºº": 6108,
      "ä»¥ä¸ľ": 6109,
      "éĤµ": 6110,
      "çļĦåİŁåĽł": 6111,
      "åĩºåľº": 6112,
      "åı¤èĢģ": 6113,
      "è°Ĭ": 6114,
      "æ³ķåºŃ": 6115,
      "Ġé¾Ļ": 6116,
      "èģĶç»ľ": 6117,
      "åħĭçļĦ": 6118,
      "åįķåħĥ": 6119,
      "æŃ£éĿ¢": 6120,
      "å¤§éĺª": 6121,
      "åı¦æľī": 6122,
      "å®¡æŁ¥": 6123,
      "èĭ±éĩĮ": 6124,
      "éĢļçĶ¨": 6125,
      "1964": 6126,
      "æ¬§çĽŁ": 6127,
      "æ±īåŃĹ": 6128,
      "ç¨Ģ": 6129,
      "éĺ³åİ¿": 6130,
      "é»ĳé¾Ļæ±Ł": 6131,
      "æĶ¶éĽĨ": 6132,
      "å¸Ĳ": 6133,
      "å¸¸åĬ¡": 6134,
      "æ¢¨": 6135,
      "1971": 6136,
      "èĸª": 6137,
      "TC": 6138,
      "å¤©åĲİ": 6139,
      "æİ§èĤ¡": 6140,
      "Ġåı¦å¤ĸ": 6141,
      "æĪĲå°±": 6142,
      "ä¸¥æł¼": 6143,
      "ĠæŃ¤å¤ĸ": 6144,
      "çŃĴ": 6145,
      "åį¸": 6146,
      "åıĺä¸º": 6147,
      "Ġçĵ¦": 6148,
      "æ±īè¯Ń": 6149,
      "æĬ¥çº¸": 6150,
      "éļľç¢į": 6151,
      "åį¡ç½Ĺ": 6152,
      "åģļä¸º": 6153,
      "ç«ŀéĢī": 6154,
      "ç¬¬åįģä¸Ģ": 6155,
      "éĻ·åħ¥": 6156,
      "ock": 6157,
      "åįļå£«åŃ¦ä½į": 6158,
      "æ¡ĵ": 6159,
      "åĬłåħ¥äºĨ": 6160,
      "çĤ¹çļĦ": 6161,
      "è¯±": 6162,
      "ç§¯åĪĨ": 6163,
      "ä½¿çĶ¨èĢħ": 6164,
      "æĮģæľī": 6165,
      "çĪ±å¾·åįİ": 6166,
      "è§īå¾Ĺ": 6167,
      "Ġ/": 6168,
      "æł¼å°Ķ": 6169,
      "æĪĺéĺŁ": 6170,
      "é¡·": 6171,
      "å®ł": 6172,
      "1938": 6173,
      "èĵĿèī²": 6174,
      "äººä¸º": 6175,
      "Ar": 6176,
      "æĳ§": 6177,
      "ç¦¾": 6178,
      "åĪĩå°Ķ": 6179,
      "ame": 6180,
      "oy": 6181,
      "ä¸»åĬĽ": 6182,
      "äººæĿĥ": 6183,
      "çī¹åħ°": 6184,
      "æľŁçļĦ": 6185,
      "æºĥ": 6186,
      "æĦıåĳ³": 6187,
      "éĢ»è¾ĳ": 6188,
      "1959": 6189,
      "çĶľ": 6190,
      "åĢ¾åĲĳ": 6191,
      "é¦ĸçĽ¸": 6192,
      "Ġ2003": 6193,
      "åı¸ä»¤éĥ¨": 6194,
      "æ£ī": 6195,
      "per": 6196,
      "éĻĦå±ŀ": 6197,
      "Ġå¤©ä¸»æķĻ": 6198,
      "å¤§è¡Ĺ": 6199,
      "1939": 6200,
      "å¹¶çĶ±": 6201,
      "å©´": 6202,
      "å·¨å¤§": 6203,
      "è·¯æ®µ": 6204,
      "æĸ¥": 6205,
      "ç¦ıå»ºçľģ": 6206,
      "åķ¡": 6207,
      "Ġl": 6208,
      "åİŁåħĪ": 6209,
      "pe": 6210,
      "åħļåĳĺ": 6211,
      "åĪ¶ä½ľçļĦ": 6212,
      "éŃĶæ³ķ": 6213,
      "ä¸Ģåľº": 6214,
      "ç»µ": 6215,
      "ä¼łç»ŁçļĦ": 6216,
      "ä¸Ĭå¸Ŀ": 6217,
      "æĹłçº¿çĶµè§Ĩ": 6218,
      "ç£·": 6219,
      "\"ï¼īï¼Į": 6220,
      "âĢĺ": 6221,
      "èĢĥåı¤": 6222,
      "çļĦåĲįåŃĹ": 6223,
      "ä¸īåĽ½": 6224,
      "å®īä¸ľ": 6225,
      "é¡ºåĪ©": 6226,
      "åħ¬äº¤": 6227,
      "ä¸ľäº¬éĥ½": 6228,
      "è´¼": 6229,
      "å¿§": 6230,
      "çľģéģĵ": 6231,
      "å¼Ģå¹ķ": 6232,
      "1944": 6233,
      "1969": 6234,
      "å®¡åĪ¤": 6235,
      "ment": 6236,
      "å»ºåĪ¶": 6237,
      "çĭ¬ç«ĭçļĦ": 6238,
      "æīĳ": 6239,
      "Ġfor": 6240,
      "è¤Ĳ": 6241,
      "éĢļä¿¡": 6242,
      "ä¹¦ä¸Ń": 6243,
      "å¤§åį«": 6244,
      "æ°ĳè¿Ľ": 6245,
      "èĳµ": 6246,
      "Ġæ¯Ķ": 6247,
      "è¸ı": 6248,
      "å¸Ĩ": 6249,
      "åī§éĽĨ": 6250,
      "æĸ¯æĭīå¤«": 6251,
      "æĶ¹è¿Ľ": 6252,
      "ç©´": 6253,
      "åŁİçļĦ": 6254,
      "ä¸¤å²¸": 6255,
      "è¡ĮæĶ¿éĻ¢": 6256,
      "çĥ¯": 6257,
      "è¾ĵåĩº": 6258,
      "å¤§éĢī": 6259,
      "æ¾Ħ": 6260,
      "110": 6261,
      "åıĳçĶŁåľ¨": 6262,
      "è¿Ļåľº": 6263,
      "åķĨäºº": 6264,
      "çĥŃå¸¦æ°ĶæĹĭ": 6265,
      "è¿ĩçļĦ": 6266,
      "è¯ģåĪ¸": 6267,
      "åľ°åľ¨": 6268,
      "ä»ħæľī": 6269,
      "ä»¥æŃ¤": 6270,
      "çļĦéĥ¨åĪĨ": 6271,
      "å®Ľ": 6272,
      "ç§ĺé²ģ": 6273,
      "å®¢æĪ·": 6274,
      "å¸¸å§Ķ": 6275,
      "æ¤İ": 6276,
      "ç»ıæµİåŃ¦": 6277,
      "cn": 6278,
      "çķħ": 6279,
      "å²Ľä¸Ĭ": 6280,
      "èº«åĪĨ": 6281,
      "æİ¨èįĲ": 6282,
      "å·¡æ´ĭ": 6283,
      "çĿ¡": 6284,
      "çĶ»å®¶": 6285,
      "1957": 6286,
      "ç§°åı·": 6287,
      "ä»¥è¥¿": 6288,
      "Ġåħ¶ä¸Ń": 6289,
      "ãĢĤâĢľ": 6290,
      "çļĦä¸ĢæĿ¡": 6291,
      "æŃ¤æ¬¡": 6292,
      "æ¦Ħ": 6293,
      "èģĶç½ĳ": 6294,
      "å½¢å®¹": 6295,
      "é¾ĻçļĦ": 6296,
      "å°Ĩåľ¨": 6297,
      "é¹ħ": 6298,
      "äºĶåįģ": 6299,
      "æĦ¤": 6300,
      "è§Ĩé¢ĳ": 6301,
      "è½©": 6302,
      "çłĶç©¶éĻ¢": 6303,
      "ï¼Įï¼ī": 6304,
      "çĪ·": 6305,
      "æĦŁè§ī": 6306,
      "å°ģä¸º": 6307,
      "æĽ´å¤ļçļĦ": 6308,
      "ä¸ŃåĽ½åĽ½æ°ĳåħļ": 6309,
      "åĨħåľ°": 6310,
      "éĩįéĩı": 6311,
      "å½ĵåľ°çļĦ": 6312,
      "åįıè°ĥ": 6313,
      "æ²¿å²¸": 6314,
      "æ²³åĮĹçľģ": 6315,
      "Ġèµµ": 6316,
      "åģĩè®¾": 6317,
      "æķĪåĬĽäºİ": 6318,
      "åº¶": 6319,
      "ĠæĽ¾ç¥ĸçĪ¶": 6320,
      "æ¨±": 6321,
      "çº¦æľī": 6322,
      "æĿ¡ä¾ĭ": 6323,
      "ç¾¤ä¼Ĺ": 6324,
      "ä½įçļĦ": 6325,
      "ä¸»ä¹īçļĦ": 6326,
      "å·²äºİ": 6327,
      "ook": 6328,
      "åĨķ": 6329,
      "èĲ½æĪĲ": 6330,
      "ç±³èĩ³": 6331,
      "æľīæľº": 6332,
      "ä¸ĬäºĨ": 6333,
      "è°ģ": 6334,
      "03": 6335,
      "æ¹ĸæ³Ĭ": 6336,
      "èŃ¦åĳĬ": 6337,
      "éĩĮè¾¾": 6338,
      "æĭĺ": 6339,
      "å¤ĦçļĦ": 6340,
      "æĹ¥å¼Ģå§ĭ": 6341,
      "æĶ¹ç§°": 6342,
      "åį«è§Ĩ": 6343,
      "åł¤": 6344,
      "æ¢µ": 6345,
      "Ġ11": 6346,
      "ä¸īäºº": 6347,
      "1967": 6348,
      "æĸĹäºī": 6349,
      "ll": 6350,
      "ç«Ļåı°": 6351,
      "ç§įæ¤į": 6352,
      "ç¿ħ": 6353,
      "ä¸ŃæľĢ": 6354,
      "åĮºåĨħ": 6355,
      "åħħæ»¡": 6356,
      "...": 6357,
      "å°¿": 6358,
      "è¥¿ä¾§": 6359,
      "è¾ŀèģĮ": 6360,
      "ç²ĴåŃĲ": 6361,
      "çļĦè§Ĵèī²": 6362,
      "éĤ®æĶ¿": 6363,
      "æĸ¯åį¡": 6364,
      "åıĳæĮ¥": 6365,
      "åīįåĲİ": 6366,
      "å¹¶æĹł": 6367,
      "åĵª": 6368,
      "çİ²": 6369,
      "çī¹å°Ķ": 6370,
      "æĥľ": 6371,
      "é¹ı": 6372,
      "çļĦæĢ»": 6373,
      "å·´é©¬": 6374,
      "ĠçĶ±": 6375,
      "è´¢äº§": 6376,
      "è¯ºå¤«": 6377,
      "é¤Ĳåİħ": 6378,
      "ure": 6379,
      "Ġèĥ¡": 6380,
      "Ġåį¢": 6381,
      "åį§": 6382,
      "æĹ¶æĬ¥": 6383,
      "æŀ¶æŀĦ": 6384,
      "èīºæľ¯å®¶": 6385,
      "åħĭæŀĹ": 6386,
      "çĬ¹å¤ªäºº": 6387,
      "å¤©æ°Ķ": 6388,
      "æıĲåıĬ": 6389,
      "ç»´å¤ļåĪ©äºļ": 6390,
      "éĵģè·¯å±Ģ": 6391,
      "æ¡Ĳ": 6392,
      "è¶³åįı": 6393,
      "å§Ķåĳĺä¼ļå§Ķåĳĺ": 6394,
      "ä¾įéĥİ": 6395,
      "å®´": 6396,
      "ary": 6397,
      "æĶ¾åľ¨": 6398,
      "æŁĦ": 6399,
      "åĽ¾åĥı": 6400,
      "1961": 6401,
      "åįģä¸Ģå¹´": 6402,
      "å¤ªåĲİ": 6403,
      "æ°Ķä½ĵ": 6404,
      "çĺ¤": 6405,
      "HR": 6406,
      "ug": 6407,
      "çĩĥæĸĻ": 6408,
      "ä½ľä¸ļ": 6409,
      "com": 6410,
      "æ£ķ": 6411,
      "ä»ĸä»¬åľ¨": 6412,
      "1935": 6413,
      "çī©ç§įçļĦ": 6414,
      "ib": 6415,
      "å¤¸": 6416,
      "åķĨåºĹ": 6417,
      "ä»ĸä¸º": 6418,
      "éĥ½è¢«": 6419,
      "ä¸¾åĬŀçļĦ": 6420,
      "æĢ¡": 6421,
      "å¼ĵ": 6422,
      "çĶµè½¦": 6423,
      "æ¯ıæĹ¥": 6424,
      "æīĵçł´": 6425,
      "åķĨåľº": 6426,
      "æĹ¥æľ¬çļĦ": 6427,
      "ç±³äºļ": 6428,
      "çļĦä½įç½®": 6429,
      "1942": 6430,
      "åįĹæµ·": 6431,
      "ä¹ĭå¤Ħ": 6432,
      "ä¿®å¤į": 6433,
      "å·´æĭī": 6434,
      "ä¸ľäºļ": 6435,
      "æ¼ı": 6436,
      "ä½İæ°Ķåİĭ": 6437,
      "äº©": 6438,
      "ãĢĤï¼Ī": 6439,
      "ä¸ĭä¸Ģ": 6440,
      "æ±¡æŁĵ": 6441,
      "åĩ¶": 6442,
      "æİ©": 6443,
      "çº¢åĨĽ": 6444,
      "çļĦå½¢å¼ı": 6445,
      "éĢ¸": 6446,
      "Ġæ°¸": 6447,
      "æ¸¸å®¢": 6448,
      "å¸ĥæľĹ": 6449,
      "åĪĻæľī": 6450,
      "02": 6451,
      "è¯¥åĽ½": 6452,
      "èı©": 6453,
      "ä½Ļäºº": 6454,
      "éģĵåħī": 6455,
      "é¥¼": 6456,
      "ä¸įè¦ģ": 6457,
      "æĹ¶ä»£çļĦ": 6458,
      "èŃ¦æĬ¥": 6459,
      "çĵ·": 6460,
      "è§Ĵåº¦": 6461,
      "èĭ±åĨĽ": 6462,
      "çļĦåŁºç¡Ģ": 6463,
      "ç½ĳçĲĥ": 6464,
      "æ»¡æ´²": 6465,
      "èĬ¦": 6466,
      "å·¡æ´ĭèĪ°": 6467,
      "Ġæ¸ħ": 6468,
      "å¾Īå°ĳ": 6469,
      "éľŀ": 6470,
      "åĺīä¹ī": 6471,
      "æł¼åĭĴ": 6472,
      "çĲĨçĶ±": 6473,
      "èİ±èĮµ": 6474,
      "æīĢåľ¨åľ°": 6475,
      "è¾ħåĬ©": 6476,
      "å¼ķè¿Ľ": 6477,
      "æĺ¾èĳĹ": 6478,
      "æĺŁçļĦ": 6479,
      "è¿ĳä»£": 6480,
      "1953": 6481,
      "ç¢°": 6482,
      "ä½ĵèĤ²åľº": 6483,
      "åįĩæł¼ä¸º": 6484,
      "èĤº": 6485,
      "æķ°ä½į": 6486,
      "aw": 6487,
      "æī©å¼ł": 6488,
      "äº«å¹´": 6489,
      "ĠéŁ¦": 6490,
      "äºĨè®¸å¤ļ": 6491,
      "æİ¥èĳĹ": 6492,
      "æ¹ĸåįĹçľģ": 6493,
      "åĬłåĵ¥": 6494,
      "çİ°æĹ¶çĶ±": 6495,
      "1962": 6496,
      "èµ·åĪĿ": 6497,
      "ç¬¬ä¸īçĶ²": 6498,
      "mm": 6499,
      "æ¸¸è¡Į": 6500,
      "çĻ»åľº": 6501,
      "Ġè°¢": 6502,
      "ç¡®ä¿Ŀ": 6503,
      "åĬłä»¥": 6504,
      "æ±ŁæĪ·": 6505,
      "ç§°ä¹ĭä¸º": 6506,
      "åĴĸåķ¡": 6507,
      "è¿ŀè½½": 6508,
      "æķĻèĤ²éĥ¨": 6509,
      "èĬĿåĬłåĵ¥": 6510,
      "ç¬¬ä¸Ģä½į": 6511,
      "è¡Įä¸ļ": 6512,
      "åĪĨæĪĲ": 6513,
      "åº§åłĤ": 6514,
      "ies": 6515,
      "çĲīçĲĥ": 6516,
      "çļĦåŁİå¸Ĥ": 6517,
      "æ¼ĶåĮĸ": 6518,
      "Ġ2000": 6519,
      "æĪĺè½¦": 6520,
      "çİ°ä¸º": 6521,
      "åĮºéĹ´": 6522,
      "ä¼ŀ": 6523,
      "æŃĮè¯į": 6524,
      "åľ¨ä¸Ń": 6525,
      "æ±ŁåįĹ": 6526,
      "èĦ±ç¦»": 6527,
      "çº¦çĳŁ": 6528,
      "æĶ¯ä»ĺ": 6529,
      "1963": 6530,
      "æ¸ħæľĿæĶ¿æ²»äººçī©": 6531,
      "åı²å¯Ĩ": 6532,
      "Ġæ°´": 6533,
      "çī¹åĭĴ": 6534,
      "ä½¿åħ¶": 6535,
      "çĪª": 6536,
      "èħ¿": 6537,
      "äº¬éĥ½": 6538,
      "EC": 6539,
      "ãĥ³": 6540,
      "èªĵ": 6541,
      "å±±è¥¿çľģ": 6542,
      "ux": 6543,
      "ç»¥": 6544,
      "æļĤæĹ¶": 6545,
      "åĮºåĪ«": 6546,
      "1936": 6547,
      "éĺ¿éĩĮ": 6548,
      "å·¨å¤§çļĦ": 6549,
      "å¼ıæľĪåı°": 6550,
      "ãĢĭãĢģ": 6551,
      "å¸ĥéĩĮ": 6552,
      "é¢Ĩåľ°": 6553,
      "å¥³çİĭ": 6554,
      "1943": 6555,
      "ust": 6556,
      "ä¸»æĮģäºº": 6557,
      "ä¸Ńå°Ĩ": 6558,
      "æĶ¶è´¹": 6559,
      "æĪĲç«ĭäºĨ": 6560,
      "å±ĤçļĦ": 6561,
      "åĽ½å®¶åħ¬åĽŃ": 6562,
      "Ġéĥĳ": 6563,
      "ä¹Łæ²¡æľī": 6564,
      "é¦ĸå¸Ń": 6565,
      "æĢ»ä¼ļ": 6566,
      "çŃĸçķ¥": 6567,
      "å¹´å¤ıåŃ£å¥¥æŀĹåĮ¹åħĭè¿ĲåĬ¨ä¼ļ": 6568,
      "æŃ»äºİ": 6569,
      "å¹´èİ·": 6570,
      "æĮ¡": 6571,
      "ä¸ŃæŃ£": 6572,
      "èĬĤåº¦ä½¿": 6573,
      "åĲĬ": 6574,
      "å¤ļé¡¹": 6575,
      "çĽ¸åıį": 6576,
      "enter": 6577,
      "æŁ¥çĲĨ": 6578,
      "æħİ": 6579,
      "ä½¿çĶ¨äºĨ": 6580,
      "åĲİè¢«": 6581,
      "Ġçļ®": 6582,
      "æ¡Į": 6583,
      "æľĢæĹ©çļĦ": 6584,
      "éĻ¢å£«": 6585,
      "æĪĺåľº": 6586,
      "åľ¨åĮĹäº¬": 6587,
      "æĪĺæĸĹæľº": 6588,
      "çĶµåĬ¨": 6589,
      "è¿ŀä»»": 6590,
      "az": 6591,
      "çłĶç©¶çĶŁ": 6592,
      "250": 6593,
      "åĽŀå¿Ĩ": 6594,
      "æµģä¼ł": 6595,
      "åįķçĭ¬": 6596,
      "æīĭæŀª": 6597,
      "æĤł": 6598,
      "ç§ŁçķĮ": 6599,
      "è´ª": 6600,
      "çľģçļĦ": 6601,
      "ä»Ĩ": 6602,
      "éĿ¢ç§¯ä¸º": 6603,
      "è½¬ä¼ļ": 6604,
      "åģļåĩº": 6605,
      "èĩĤ": 6606,
      "æĳ§æ¯ģ": 6607,
      "åĨľæĿĳå±ħæ°ĳçĤ¹": 6608,
      "åºĨç¥Ŀ": 6609,
      "ç»ĪçĤ¹": 6610,
      "å§¿": 6611,
      "é¦ĸä½į": 6612,
      "å¼Ħ": 6613,
      "èĤ¤": 6614,
      "èĿł": 6615,
      "æ²³çļĦ": 6616,
      "æĪĲç«ĭåĲİ": 6617,
      "å¤§å®¶": 6618,
      "ĠåĬł": 6619,
      "æ°ĳè¿Ľåħļ": 6620,
      "åįģæľĪ": 6621,
      "åĪĽå§ĭ": 6622,
      "é¢ł": 6623,
      "è§ĨæĺŁçŃīä¸º": 6624,
      "è¯Ħä¼°": 6625,
      "PC": 6626,
      "æ²³éģĵ": 6627,
      "äº¤çķĮ": 6628,
      "åľºæīĢ": 6629,
      "ee": 6630,
      "æĹ¶æ®µ": 6631,
      "åĽŀåĽ½": 6632,
      "æīĭæľ¯": 6633,
      "æĹ©ä¸Ĭ": 6634,
      "çİ°åŃĺ": 6635,
      "åıĳè¨Ģ": 6636,
      "æĸ¯æīĺ": 6637,
      "ä¹łæĥ¯": 6638,
      "èĮİ": 6639,
      "åįĹæŀģæĿ¡çº¦": 6640,
      "è¿Ŀåıį": 6641,
      "å¹´ä¸ĸçķĮ": 6642,
      "æĥ³è¦ģ": 6643,
      "å¹´ç¾İåĽ½äººåı£æĻ®æŁ¥": 6644,
      "èĲ¨æĸ¯å·ŀ": 6645,
      "æĺ¯ä»İ": 6646,
      "æ¶Ľ": 6647,
      "å·²çŁ¥": 6648,
      "åºıåĪĹ": 6649,
      "ç³»åĪĹçļĦ": 6650,
      "éķľå¤´": 6651,
      "æĢ»ç«Ļ": 6652,
      "ä¼¼ä¹İ": 6653,
      "åİĿ": 6654,
      "éĢļçŁ¥": 6655,
      "åį°åĪ·": 6656,
      "æ£ĴçĲĥ": 6657,
      "çĹĩçĬ¶": 6658,
      "åĲĪæ³ķ": 6659,
      "ä¸ľä¾§": 6660,
      "æĨ": 6661,
      "åĨĢ": 6662,
      "éĢĶä¸Ń": 6663,
      "SS": 6664,
      "æ¡Ĩ": 6665,
      "è§Ĥåħī": 6666,
      "ä¾£": 6667,
      "Ġ15": 6668,
      "âĢ§": 6669,
      "æĻĭçº§": 6670,
      "å®ĺèĩ³": 6671,
      "çļĦæĹ¥": 6672,
      "å¸ĤæĶ¿": 6673,
      "å¨¶": 6674,
      "130": 6675,
      "è¿Ļé¦ĸ": 6676,
      "æĺ¯ä¸į": 6677,
      "åŁİåİ¿": 6678,
      "ç»ĳ": 6679,
      "ç«ĭåľº": 6680,
      "çº¿ä¸Ĭ": 6681,
      "æĴ¤éĢĢ": 6682,
      "åĩĮæĻ¨": 6683,
      "åħĪè¿Ľ": 6684,
      "åĨĴéĻ©": 6685,
      "çĽ¸åºĶ": 6686,
      "å¥ł": 6687,
      "éĹ»åĲį": 6688,
      "å°¼å¥¥": 6689,
      "åįĹæŀģæĿ¡çº¦ä½ĵç³»": 6690,
      "ex": 6691,
      "äº¤æ±ĩ": 6692,
      "é©±åĬ¨": 6693,
      "ç¬¬ä¸ĢçĻ¾": 6694,
      "æľ«æľŁ": 6695,
      "æµ·ä¸Ĭ": 6696,
      "çļĦæĶ¿æ²»": 6697,
      "æŀĦéĢł": 6698,
      "çļĦä¸į": 6699,
      "ä»ĸäºİ": 6700,
      "ç¦ıå¾·": 6701,
      "æĶ¹å»º": 6702,
      "1951": 6703,
      "Ġåħ¨": 6704,
      "çĻ»è®°": 6705,
      "ä½ĨåĽł": 6706,
      "éģŃéģĩ": 6707,
      "èµ¤çº¬": 6708,
      "åį³å°Ĩ": 6709,
      "èĤ¢": 6710,
      "æĪĲçĨŁ": 6711,
      "æł¹æľ¬": 6712,
      "ç¾İä¸½": 6713,
      "åįĹæŀģæĿ¡çº¦ä½ĵç³»ç®¡çĲĨ": 6714,
      "ĠCom": 6715,
      "Ġæį®": 6716,
      "åı¯åīįå¾Ģ": 6717,
      "çļĦæľĢ": 6718,
      "è½¦éĺŁ": 6719,
      "åĽĽåįģ": 6720,
      "çº§åĪ«": 6721,
      "äº¤æµģéģĵ": 6722,
      "IST": 6723,
      "Ġå¾Ĳ": 6724,
      "èº«ä¸Ĭ": 6725,
      "ä»£æĽ¿": 6726,
      "åĮĹæµ·éģĵ": 6727,
      "èµŀåĬ©": 6728,
      "çļĦç¥ŀ": 6729,
      "åľ¨åĨħçļĦ": 6730,
      "æĺ¯åį°åº¦": 6731,
      "è£¸": 6732,
      "çļĦç»ĵæŀľ": 6733,
      "çªĦ": 6734,
      "éĿ¢ä¸´": 6735,
      "ä¿¡å¾Ĵ": 6736,
      "å¥¥æĸ¯åį¡": 6737,
      "éĢļå¾Ģ": 6738,
      "é¸¦": 6739,
      "éĴ¢çĲ´": 6740,
      "ory": 6741,
      "æ²¼": 6742,
      "å¦Ĥä»Ĭ": 6743,
      "èµ¤ç»ı": 6744,
      "ä¸ºåı°æ¹¾": 6745,
      "åŃĲå¥³": 6746,
      "é©¬ä¸ģ": 6747,
      "å¸Įå°Ķ": 6748,
      "ĠäºĮ": 6749,
      "é¢Ħç®Ĺ": 6750,
      "IP": 6751,
      "èħ°": 6752,
      "Sh": 6753,
      "åĨħæľī": 6754,
      "ä¼Ĭæĭīåħĭ": 6755,
      "éĻ¤æŃ¤": 6756,
      "é¢Ħæµĭ": 6757,
      "åįķä¸Ģ": 6758,
      "åľ¨èĭ±åĽ½": 6759,
      "Ġå¡Ķ": 6760,
      "ä¸Ńåįİäººæ°ĳåħ±åĴĮåĽ½æĶ¿æ²»äººçī©": 6761,
      "æµ·åįĹ": 6762,
      "å¤§éĿ©åĳ½": 6763,
      "æĮĩæķ°": 6764,
      "åĽĽå¤§": 6765,
      "è¯¦ç»Ĩ": 6766,
      "åĢ¼å¾Ĺ": 6767,
      "å¹¶è¢«": 6768,
      "æ¬¡äºİ": 6769,
      "é¢ĸ": 6770,
      "åħ¬éĩĮçļĦ": 6771,
      "æģ¨": 6772,
      "å·¥ä¼ļ": 6773,
      "èµ«å°Ķ": 6774,
      "âĦ": 6775,
      "æĶ¹åĲį": 6776,
      "æĹ¥ä¸ĭåįĪ": 6777,
      "ld": 6778,
      "å°±åľ¨": 6779,
      "åĶ¯ä¸ĢçļĦ": 6780,
      "æķ´åĲĪ": 6781,
      "åĪ¶ä½ľäºº": 6782,
      "æİ¢æµĭ": 6783,
      "æľªæľī": 6784,
      "æ®·": 6785,
      "åľ°ä¸Ĭ": 6786,
      "yle": 6787,
      "æĪĺæľ¯": 6788,
      "å²©çŁ³": 6789,
      "ä¾Ŀçħ§": 6790,
      "ä¼Ĭæĸ¯åħ°æķĻ": 6791,
      "åħ¬ä¼ļ": 6792,
      "åĬłåĪ©äºļ": 6793,
      "éģĵå¾·": 6794,
      "Ġåįİ": 6795,
      "éĥ¨å°ļä¹¦": 6796,
      "ç»Ħç»ĩçļĦ": 6797,
      "ogle": 6798,
      "ID": 6799,
      "ial": 6800,
      "Ġç¦ı": 6801,
      "æĸ¯æ´Ľ": 6802,
      "çī¹åĮº": 6803,
      "å¼ĹéĩĮ": 6804,
      "æĬĦ": 6805,
      "æ¸¸åĩ»": 6806,
      "æĥ§": 6807,
      "è¶³çĲĥèģĶèµĽ": 6808,
      "æĦ¿æĦı": 6809,
      "ä¸ľåįĹäºļ": 6810,
      "ç¿Įå¹´": 6811,
      "ä¸»æĿĥ": 6812,
      "éĥ½çĿ£": 6813,
      "éħįç½®": 6814,
      "è´¹çĶ¨": 6815,
      "å¥´éļ¶": 6816,
      "èŀįåĲĪ": 6817,
      "å²ĽçļĦ": 6818,
      "åħ¶ä»ĸçļĦ": 6819,
      "æħ°": 6820,
      "è®¤è¯ģ": 6821,
      "å®¤åĨħ": 6822,
      "èħĵ": 6823,
      "çİ°æĹ¶çĶ±åįĹæŀģæĿ¡çº¦ä½ĵç³»ç®¡çĲĨ": 6824,
      "çŁŃæļĤ": 6825,
      "ä¼ļè®®åĳĺ": 6826,
      "åĴ¨è¯¢": 6827,
      "çĽ®çļĦæĺ¯": 6828,
      "èµĦåĬ©": 6829,
      "Ġåħ¶": 6830,
      "è°Ĳ": 6831,
      "èĤ¿": 6832,
      "åĪĽæĸ°": 6833,
      "tern": 6834,
      "OM": 6835,
      "Ġä»¥": 6836,
      "æľĢé«ĺçļĦ": 6837,
      "çĹħéĢĿ": 6838,
      "è´·": 6839,
      "åĩºæĿ¥çļĦ": 6840,
      "è¨Ģè®º": 6841,
      "é²·": 6842,
      "å¥¸": 6843,
      "å·ŀè´Łè´£ç®¡è¾ĸ": 6844,
      "æİĴåĪĹ": 6845,
      "æĪĲå¹´": 6846,
      "Ġåºĵ": 6847,
      "éªļ": 6848,
      "äº¤ç»Ļ": 6849,
      "ina": 6850,
      "åĢŁçĶ±": 6851,
      "çļĦçī¹æľī": 6852,
      "æĬĽ": 6853,
      "ç«ŀèµĽ": 6854,
      "æı´åĬ©": 6855,
      "æĬĹæĹ¥æĪĺäºī": 6856,
      "ĠåıĮ": 6857,
      "æīŃ": 6858,
      "åľ¨æĸ°": 6859,
      "èĤĿ": 6860,
      "æ¸¯éĵģ": 6861,
      "çĶµåĬĽæľºè½¦": 6862,
      "æĿ¥èĩªäºİ": 6863,
      "èµĮ": 6864,
      "æ½ľèīĩ": 6865,
      "æ¸¸æĪıçļĦ": 6866,
      "ç®Ĺæ³ķ": 6867,
      "è½¦åİ¢": 6868,
      "å¯¹ç§°": 6869,
      "éªĹ": 6870,
      "Ġ|": 6871,
      "çļĦåıį": 6872,
      "åľ°äº§": 6873,
      "åĪ¶çīĩ": 6874,
      "åĳİ": 6875,
      "çĶ¨ä»¥": 6876,
      "å¹²çº¿": 6877,
      "ert": 6878,
      "äºĴèģĶç½ĳ": 6879,
      "ä¸ºå¤§": 6880,
      "å®ļçĲĨ": 6881,
      "çĽĪ": 6882,
      "æĭīå°Ķ": 6883,
      "çĥ·": 6884,
      "æ²Īéĺ³": 6885,
      "æľĪèµ·": 6886,
      "è¥¿éĩĮ": 6887,
      "éĿĴæµ·": 6888,
      "ä¿Ĺç§°": 6889,
      "é¢Ĥ": 6890,
      "ĠåĶĲ": 6891,
      "ĠéĻ¤äºĨ": 6892,
      "èĤ©": 6893,
      "ĠéĽ·": 6894,
      "å¾ģæľį": 6895,
      "ä¸»åĬ¨": 6896,
      "çī²": 6897,
      "Ġ2002": 6898,
      "æĽ¿ä»£": 6899,
      "çĶ»éĿ¢": 6900,
      "col": 6901,
      "Ġç´¢": 6902,
      "ç±³åħ°": 6903,
      "å¼ĢåĬŀ": 6904,
      "åı¯æĺ¯": 6905,
      "çİ°æľī": 6906,
      "èĩªæĪĳ": 6907,
      "èĩªç§°": 6908,
      "æį·è¿Ĳ": 6909,
      "iz": 6910,
      "åĪł": 6911,
      "æĮĩæİ§": 6912,
      "æ±¶": 6913,
      "è¡Įé©¶": 6914,
      "Ġçī¹": 6915,
      "æĹ©åľ¨": 6916,
      "æİĮæı¡": 6917,
      "ç«ĻçļĦ": 6918,
      "æĻ®é²ģ": 6919,
      "å¹´ä¸İ": 6920,
      "è¯¥åħ¬åı¸": 6921,
      "Ġå±±": 6922,
      "ĠåĲī": 6923,
      "åĪ©çļĦ": 6924,
      "ä¸īç§į": 6925,
      "åĩĨåĨ³èµĽ": 6926,
      "è¾Ī": 6927,
      "å¦ĸ": 6928,
      "åįłæį®": 6929,
      "è¯¥æł¡": 6930,
      "1933": 6931,
      "æĺ¥ç§ĭ": 6932,
      "ĠåĪ©": 6933,
      "ala": 6934,
      "ä»ĸæĽ¾": 6935,
      "ä¿®éģĵ": 6936,
      "ohn": 6937,
      "ä¹ĭåĲİçļĦ": 6938,
      "æĶ»æīĵ": 6939,
      "æĹ§åĿĢ": 6940,
      "æľĽè¿ľ": 6941,
      "æĺ¯ä¸ºäºĨ": 6942,
      "èĪ¹åıª": 6943,
      "éķĩåİĭ": 6944,
      "æ¸ħåįİ": 6945,
      "ä»»æľŁ": 6946,
      "ä½ĵåĪ¶": 6947,
      "çĶ·å¥³": 6948,
      "äºĮçº§": 6949,
      "æĿ¥å¾Ģ": 6950,
      "éķ¿å®ī": 6951,
      "éģŃåıĹ": 6952,
      "å±łæĿĢ": 6953,
      "é£ŁæĢ§": 6954,
      "åıĳçİ°çļĦ": 6955,
      "èĩ´åĬĽ": 6956,
      "åħĶ": 6957,
      "æĽ´æĺ¯": 6958,
      "ç§ĳå°Ķ": 6959,
      "iss": 6960,
      "æ¶¡": 6961,
      "ä½įäºİéĵ¶": 6962,
      "å»ºçŃĳå¸Ī": 6963,
      "æ²³æµģåŁŁ": 6964,
      "ï¼īãĢģãĢĬ": 6965,
      "ä¿ĿåĬłåĪ©äºļ": 6966,
      "çĭ®åŃĲ": 6967,
      "Ġå¡ŀ": 6968,
      "çľģè´Łè´£ç®¡è¾ĸ": 6969,
      "åŁºæĸ¯åĿ¦": 6970,
      "è¯¥å¸Ĥ": 6971,
      "åħ¬é¡·": 6972,
      "æĪĺåĽ½": 6973,
      "SAO": 6974,
      "åĵĢ": 6975,
      "è¶ħè¶Ĭ": 6976,
      "åŃ¦ç³»": 6977,
      "èī²å½©": 6978,
      "LE": 6979,
      "åħ¨ä¸ĸçķĮ": 6980,
      "åľºæĻ¯": 6981,
      "åıĽä¹±": 6982,
      "æĹ¥çĶ±": 6983,
      "ä»£çłģä¸º": 6984,
      "è¿ģèĩ³": 6985,
      "èļĢ": 6986,
      "ä»»æķĻ": 6987,
      "åħ¥çĲĥ": 6988,
      "åĲģ": 6989,
      "çĮªç¬¼": 6990,
      "çŁĽçĽ¾": 6991,
      "è¿ĻæĹ¶": 6992,
      "æī©å»º": 6993,
      "åĪĨä¹ĭä¸Ģ": 6994,
      "åºĩ": 6995,
      "çº¿æĢ§": 6996,
      "è¿ĺåľ¨": 6997,
      "è®¾è®¡å¸Ī": 6998,
      "å½°åĮĸ": 6999,
      "Un": 7000,
      "å½»åºķ": 7001,
      "éĢĤåºĶ": 7002,
      "span": 7003,
      "åĵĪå°Ķæ»¨": 7004,
      "åĬ£": 7005,
      "--": 7006,
      "çļĦåľ°åĮº": 7007,
      "çļĦç»Ŀå¯¹": 7008,
      "è·µ": 7009,
      "1927": 7010,
      "ä¹Łåı¯": 7011,
      "çĲĨæŁ¥": 7012,
      "å¾®è½¯": 7013,
      "æ´Ľæĸ¯": 7014,
      "Ġæīĺ": 7015,
      "æĹ¥è¯Ń": 7016,
      "çºł": 7017,
      "çľī": 7018,
      "èĻ¾": 7019,
      "å¦ĤåĲĮ": 7020,
      "åħ¶B": 7021,
      "èģļéĽĨ": 7022,
      "å¤Ħéķ¿": 7023,
      "çĮªç¬¼èįī": 7024,
      "AK": 7025,
      "åĿŁ": 7026,
      "éĵ¶çº¬": 7027,
      "é³Ħ": 7028,
      "åŁ¹è®Ń": 7029,
      "çĮľ": 7030,
      "ä¼ģåĽ¾": 7031,
      "ä¸īå¤§": 7032,
      "è§Ĩè§ī": 7033,
      "åĥıæĺ¯": 7034,
      "åĬłåĪ©ç¦ıå°¼äºļå·ŀ": 7035,
      "ĠAr": 7036,
      "åı«åģļ": 7037,
      "éħįå¤ĩ": 7038,
      "æģĲé¾Ļ": 7039,
      "èĪªçıŃ": 7040,
      "ç¥Ī": 7041,
      "ä»¥ä¾¿": 7042,
      "åĪ¤åĨ³": 7043,
      "ä¼Ļä¼´": 7044,
      "ä½įäºİéĵ¶ç»ı": 7045,
      "åŁł": 7046,
      "åĿĲæłĩä¸ºèµ¤ç»ı": 7047,
      "åľ°å½¢": 7048,
      "åĳ¨åĪĬ": 7049,
      "æľĪåºķ": 7050,
      "èĢĮè¯¥": 7051,
      "1928": 7052,
      "åĲīä»ĸ": 7053,
      "å¯»æ±Ĥ": 7054,
      "æĪĲäºº": 7055,
      "åį«éĺŁ": 7056,
      "è¿½æº¯": 7057,
      "åĲĮæĢ§æģĭ": 7058,
      "å·´æĸ¯": 7059,
      "åİŁä¸º": 7060,
      "éĤ£å·ŀ": 7061,
      "å§Ķåī¯ä¹¦è®°": 7062,
      "æ»¤": 7063,
      "åı·ä¸º": 7064,
      "æľĽè¿ľéķľ": 7065,
      "å¿Į": 7066,
      "ç²¤è¯Ń": 7067,
      "ç§įç±»": 7068,
      "åħ¶ä¸Ńä¸Ģä¸ª": 7069,
      "æ¡¥æ¢ģ": 7070,
      "èĢĮæĿ¥": 7071,
      "åĩłä½ķ": 7072,
      "å®ŀåĬĽ": 7073,
      "åĩºçİ°çļĦ": 7074,
      "ãĢĭï¼Ī\"": 7075,
      "ĠZ": 7076,
      "ĠäºĶ": 7077,
      "æĶ»åįł": 7078,
      "ç½Ĺå¤«": 7079,
      "è®¸åı¯": 7080,
      "åĨĻçļĦ": 7081,
      "æĭħå¿ĥ": 7082,
      "å°ĺ": 7083,
      "åľ¨ä¸Ģä¸ª": 7084,
      "åħ¨åĽ½äººå¤§": 7085,
      "éĿĴå°ĳå¹´": 7086,
      "æĶ¹åĪ¶ä¸º": 7087,
      "æ§½": 7088,
      "éĢīåĩº": 7089,
      "æıĲè®®": 7090,
      "Ġèİ±": 7091,
      "æľµ": 7092,
      "æĸ°çķĮ": 7093,
      "åĲįè¯į": 7094,
      "åķĨåĬ¡": 7095,
      "æķĳæı´": 7096,
      "åĽĽæľĪ": 7097,
      "å·¥èīº": 7098,
      "é¥¶": 7099,
      "çĽ´æĴŃ": 7100,
      "çŃīçļĦ": 7101,
      "æĳ©å°Ķ": 7102,
      "ç»ĺçĶ»": 7103,
      "åľ¨åĮĹ": 7104,
      "è¾¹çļĦ": 7105,
      "åŁİå¢Ļ": 7106,
      "ĠPro": 7107,
      "åĬŀæ³ķ": 7108,
      "ç¼´": 7109,
      "æĤ¦": 7110,
      "è¿Ľè¡ĮçļĦ": 7111,
      "å»ºåĽ½": 7112,
      "ç½Ĺä¼¯çī¹": 7113,
      "æł¼éĩĮ": 7114,
      "çĳļ": 7115,
      "æµ¸": 7116,
      "ä¸įè¯¦": 7117,
      "åĽļ": 7118,
      "éģĩåĪ°": 7119,
      "101": 7120,
      "å¡ŀå°Ķç»´äºļ": 7121,
      "æ»ĭ": 7122,
      "DVD": 7123,
      "ç¿°æŀĹ": 7124,
      "æıĲåĩºäºĨ": 7125,
      "åĲĪåĶ±": 7126,
      "åľºæ¯ĶèµĽ": 7127,
      "æīĩ": 7128,
      "çŃīäºİ": 7129,
      "çĪ¬": 7130,
      "æł¼éĽ·": 7131,
      "å£«å°¼": 7132,
      "èĪªå¤©": 7133,
      "åĬ³å·¥": 7134,
      "åĮĹå¸Ĥ": 7135,
      "UN": 7136,
      "ä¸ĢçĻ¾": 7137,
      "è®¼": 7138,
      "çº³å¾·": 7139,
      "è¯´æĺ¯": 7140,
      "åĩ°": 7141,
      "æľīçĿĢ": 7142,
      "èĬŃ": 7143,
      "çĤŃ": 7144,
      "éģĵçļĦ": 7145,
      "æĹ¥åıĳè¡Į": 7146,
      "ä¸ĭåĪĹ": 7147,
      "1931": 7148,
      "åĬĽåŃ¦": 7149,
      "æł¼å¼ı": 7150,
      "å«©": 7151,
      "ç¥¯": 7152,
      "å§Ķä»»": 7153,
      "è¯ĳä¸º": 7154,
      "å¤©çļĦ": 7155,
      "é¢Ĩäºĭ": 7156,
      "æ¸ħä»£": 7157,
      "1932": 7158,
      "äººç§°": 7159,
      "éĢ¾": 7160,
      "çĽ¸ç»§": 7161,
      "ä¹Įæĸ¯": 7162,
      "MS": 7163,
      "mer": 7164,
      "è¿ªå£«å°¼": 7165,
      "å¹´ä»»": 7166,
      "çĽ´åįĩ": 7167,
      "çŁ©éĺµ": 7168,
      "éĻķè¥¿çľģ": 7169,
      "ä¸»ç®¡": 7170,
      "è·ĭ": 7171,
      "ear": 7172,
      "åĿŀ": 7173,
      "ä»įæľī": 7174,
      "åĨĽäºº": 7175,
      "èĩªæŃ¤": 7176,
      "å®ļæľŁ": 7177,
      "ational": 7178,
      "âĦĥ": 7179,
      "æ°¸ä¹ħ": 7180,
      "æĹ©æľŁçļĦ": 7181,
      "æĶ¶åĪ°": 7182,
      "å°ĳå°Ĩ": 7183,
      "åīįèº«": 7184,
      "éĢıéľ²": 7185,
      "æĹĭè½¬": 7186,
      "éķĳ": 7187,
      "åīįè¿Ľ": 7188,
      "éĿŀæ³ķ": 7189,
      "ä»ĸåĴĮ": 7190,
      "åĿĲèĲ½": 7191,
      "èĤĩ": 7192,
      "æĹıç¾¤": 7193,
      "ä¸ºåŁºç¡Ģ": 7194,
      "èµĶ": 7195,
      "çĮ´": 7196,
      "èĬĻ": 7197,
      "çī©ä½ĵ": 7198,
      "åħ¬å¼ĢèµĽ": 7199,
      "åľºåľ°": 7200,
      "ĠNGC": 7201,
      "å¤©æĸĩåŃ¦å®¶": 7202,
      "Ġå¹³": 7203,
      "ier": 7204,
      "å±±å¸Ĥ": 7205,
      "åĲįäºº": 7206,
      "è£ģåĪ¤": 7207,
      "ãģ®": 7208,
      "éĢĲæŃ¥": 7209,
      "ide": 7210,
      "åºļ": 7211,
      "ãĢĤãĢĮ": 7212,
      "å¸ĥéĽ·": 7213,
      "æĻºæħ§": 7214,
      "çļĦåľ°ä½į": 7215,
      "ç§©": 7216,
      "å¯ĩ": 7217,
      "åİ¥": 7218,
      "åĬ¨è½¦": 7219,
      "èģĶåĨĽ": 7220,
      "çļĦåŃ¦çĶŁ": 7221,
      "Ð°": 7222,
      "ä¸ĭå±ŀ": 7223,
      "ick": 7224,
      "ET": 7225,
      "æĢİ": 7226,
      "æŃ¤äºĭ": 7227,
      "å½ĵä»£": 7228,
      "æ´Ľéĺ³": 7229,
      "éĢ¢æĺŁæľŁ": 7230,
      "Ġæĺİ": 7231,
      "æĭīå¾·": 7232,
      "å½±è§Ĩ": 7233,
      "æ´Ľå¤«": 7234,
      "çļĦåĪĨ": 7235,
      "æ¸ħæ¥ļ": 7236,
      "åįıå®ļ": 7237,
      "çļĦçĶµ": 7238,
      "æķĪçİĩ": 7239,
      "å»¶ç»Ń": 7240,
      "æłĩæľ¬": 7241,
      "ç¥Ĳ": 7242,
      "å°¼åı¤": 7243,
      "ä¸Ģäºº": 7244,
      "å¢ŀåĬłäºĨ": 7245,
      "é«ĺåİŁ": 7246,
      "çļĦåĽ½éĻħ": 7247,
      "HK": 7248,
      "èľ¥": 7249,
      "å±¡": 7250,
      "å°§": 7251,
      "éĩĮåħĭ": 7252,
      "äºİæŃ¤": 7253,
      "çģ«è½¦ç«Ļ": 7254,
      "æĽ´æį¢": 7255,
      "å¼łåįķæĽ²": 7256,
      "åĽ½è¯Ń": 7257,
      "åħ±è®¡": 7258,
      "çªĿ": 7259,
      "çĻ¾å§ĵ": 7260,
      "åģľéĿł": 7261,
      "æĢ»ç»ıçĲĨ": 7262,
      "è¿Ļä¹Łæĺ¯": 7263,
      "Ġ2001": 7264,
      "å°±æľī": 7265,
      "ä½ıåľ¨": 7266,
      "åµĮ": 7267,
      "åĬłéĢŁ": 7268,
      "æĸ°å»º": 7269,
      "é¢Ĺå°ıè¡ĮæĺŁ": 7270,
      "round": 7271,
      "ç¥¸": 7272,
      "å¹´ä»¥": 7273,
      "MV": 7274,
      "åıĤè°ĭéķ¿": 7275,
      "åĮħæĭ¬äºĨ": 7276,
      "è®¤åĲĮ": 7277,
      "1934": 7278,
      "çº³æĸ¯": 7279,
      "æľįè£ħ": 7280,
      "æľĪåľ¨": 7281,
      "è°£": 7282,
      "ä¼¯çĪµ": 7283,
      "å¼ĹæľĹ": 7284,
      "è¾ĥå¤§": 7285,
      "ä¸ĸçºªåĪĿ": 7286,
      "æİ¨åĩºçļĦ": 7287,
      "å¤§æ°Ķ": 7288,
      "çļĦåĨħå®¹": 7289,
      "åĲİåıĤåĬł": 7290,
      "æĲŀ": 7291,
      "ç§ģç«ĭ": 7292,
      "éĴ©": 7293,
      "åĬłåħ¥ä¸ŃåĽ½åħ±äº§åħļ": 7294,
      "ç¼Ŀ": 7295,
      "å¼ĹéĽ·": 7296,
      "ä½įäºİè¯¥åĽ½åĮĹéĥ¨": 7297,
      "æ°Ł": 7298,
      "ç½Ĺé©¬å¸ĿåĽ½": 7299,
      "åĮºè®®ä¼ļ": 7300,
      "çļĦçĶŁæ´»": 7301,
      "å¥³æ¼Ķåĳĺ": 7302,
      "æĪĲæŀľ": 7303,
      "ä»»ä¸Ńåħ±": 7304,
      "ä¸ĸçºªçļĦ": 7305,
      "Ph": 7306,
      "IT": 7307,
      "åħ¶ä¸º": 7308,
      "ä½Ľç½ĹéĩĮè¾¾": 7309,
      "ä¸İæŃ¤": 7310,
      "è¡Įèµ°": 7311,
      "å¾·æĸ¯": 7312,
      "åĮºåĪĨ": 7313,
      "åĲĮæĹ¶ä¹Łæĺ¯": 7314,
      "æĮĩä»¤": 7315,
      "æ¿ĢçĥĪ": 7316,
      "å°±åı¯ä»¥": 7317,
      "åı°ä¸Ńå¸Ĥ": 7318,
      "å¤§å¥ĸèµĽ": 7319,
      "å¥³ä¸»è§Ĵ": 7320,
      "çļĦæĦıæĢĿ": 7321,
      "ach": 7322,
      "å°Ķé¡¿": 7323,
      "ä¸¤æĿ¡": 7324,
      "æ¼Ķèīº": 7325,
      "å¦¹å¦¹": 7326,
      "3000": 7327,
      "å£«é¡¿": 7328,
      "äº¤æĺĵæīĢ": 7329,
      "æµİåįĹ": 7330,
      "ç¦§": 7331,
      "çĽ¸è¿ŀ": 7332,
      "çĻ»è¿Ľå£«ç¬¬ä¸īçĶ²": 7333,
      "1929": 7334,
      "èĪªçº¿": 7335,
      "ç¬¬ä¸Ģå±Ĭ": 7336,
      "èĵĦ": 7337,
      "éģ®": 7338,
      "ä¿Ŀå®ī": 7339,
      "æ¯ıåĳ¨": 7340,
      "èĽĭçĻ½è´¨": 7341,
      "åıĤè®®éĻ¢": 7342,
      "éĢłæĪĲçļĦ": 7343,
      "èĪªç©ºåħ¬åı¸": 7344,
      "ĠæĿľ": 7345,
      "åĪĨæł¡": 7346,
      "å¹´é¦Ļæ¸¯": 7347,
      "åħµåĽ¢": 7348,
      "ç²¾çģµ": 7349,
      "çļĦæ¦Ĥå¿µ": 7350,
      "å½ķå½±": 7351,
      "ĠUn": 7352,
      "å¤«å¦ĩ": 7353,
      "ĠSh": 7354,
      "åĩ¤åĩ°": 7355,
      "å·´èµ«": 7356,
      "éªı": 7357,
      "ä¸įå¾Ĺä¸į": 7358,
      "å¥¥æĸ¯æĽ¼": 7359,
      "éĺħè¯»": 7360,
      "åº¸": 7361,
      "é©±éĢĲèĪ°": 7362,
      "åħ·å¤ĩ": 7363,
      "åĸľçĪ±": 7364,
      "åı£å¾Ħ": 7365,
      "DS": 7366,
      "äºĨä»ĸçļĦ": 7367,
      "æĪĲåĪĨ": 7368,
      "Sp": 7369,
      "å¥³åŃ©": 7370,
      "åľ£æ¯į": 7371,
      "æĹłéĻĲ": 7372,
      "å¥½è¯Ħ": 7373,
      "éĺŁåĳĺ": 7374,
      "åİ¦éĹ¨": 7375,
      "æīĢè¾ĸ": 7376,
      "å®¶ä¹¡": 7377,
      "æĸ¹ç¨ĭå¼ı": 7378,
      "åĽ¾æ¡Ī": 7379,
      "çĶµè§ĨèĬĤçĽ®": 7380,
      "çļĦçĪ¶äº²": 7381,
      "åĳ¼åĲģ": 7382,
      "ä¼Ĺè®®éĻ¢": 7383,
      "ĠÐ": 7384,
      "å§Ķæīĺ": 7385,
      "æŃĮåĶ±": 7386,
      "åĵ¥åĵ¥": 7387,
      "æİ¨è¡Į": 7388,
      "çºº": 7389,
      "çĲĨå¿µ": 7390,
      "æĲľç´¢": 7391,
      "åĿł": 7392,
      "æ¤ħ": 7393,
      "çļĦè¡Įä¸º": 7394,
      "çļĦç¾İåĽ½": 7395,
      "ä¸»æµģ": 7396,
      "ä¼łå¥ĩ": 7397,
      "èĥľåĩº": 7398,
      "èĲ¥ä¸ļ": 7399,
      "åĲİäºİ": 7400,
      "é¦ĸåº¦": 7401,
      "åĪºæ¿Ģ": 7402,
      "çļĦä¸Ĭ": 7403,
      "æĤŁ": 7404,
      "åıĤä¸İäºĨ": 7405,
      "æ³Ħ": 7406,
      "å¿ĥèĦı": 7407,
      "åĬłæĸ¯": 7408,
      "åĲĳéĩı": 7409,
      "å·´åŁºæĸ¯åĿ¦": 7410,
      "å±ĢçļĦ": 7411,
      "æ¹ĸåĮĹçľģ": 7412,
      "å¹»æĥ³": 7413,
      "ork": 7414,
      "ix": 7415,
      "ISTAT": 7416,
      "è¯¥å¸Ĥéķĩå¹´æĹ¶çļĦäººåı£ä¸ºäºº": 7417,
      "èĲ¨æĭī": 7418,
      "éĽĨä½ĵ": 7419,
      "åĮ»åŃ¦éĻ¢": 7420,
      "åĽ¢ç»ĵ": 7421,
      "å®īå¾½çľģ": 7422,
      "å¯ĨåĪĩ": 7423,
      "å¤ĦçĲĨåĻ¨": 7424,
      "äºĨä»ĸ": 7425,
      "åįģå¤§": 7426,
      "æŃ»åĪĳ": 7427,
      "è¶ģ": 7428,
      "å®īå¨ľ": 7429,
      "Ġ&": 7430,
      "çīĪçļĦ": 7431,
      "ä¹ŁåĽłæŃ¤": 7432,
      "å¹´ä¸Ń": 7433,
      "æĢ»æķĻåĮº": 7434,
      "é£ŀå¼¹": 7435,
      "æ¶ĪçģŃ": 7436,
      "æĹ¥ä¸ĬåįĪ": 7437,
      "èĤ¾": 7438,
      "å¹³æ°ĳ": 7439,
      "é¸Łç±»": 7440,
      "ä¾Ŀèµĸ": 7441,
      "ä½ľæĽ²å®¶": 7442,
      "è®®é¢ĺ": 7443,
      "Ġæ±ī": 7444,
      "ç¦ıå·ŀ": 7445,
      "çº·çº·": 7446,
      "è·Į": 7447,
      "æĻ´": 7448,
      "åŀĭåı·": 7449,
      "ä½ĳ": 7450,
      "èģļèĲ½": 7451,
      "Ġä½©": 7452,
      "å°Ĩäºİ": 7453,
      "æ¶Īéĺ²": 7454,
      "IM": 7455,
      "éĩįå¤į": 7456,
      "AL": 7457,
      "Mar": 7458,
      "æĺĶ": 7459,
      "æ©¡": 7460,
      "æĽ¾è¢«": 7461,
      "ç¦ıéŁ³": 7462,
      "å½ķåĪ¶": 7463,
      "ä¸Ģéĥ¨": 7464,
      "å¥½åıĭ": 7465,
      "éĶħ": 7466,
      "åĲİæĿ¥çļĦ": 7467,
      "å¹´ä»ĸ": 7468,
      "ï¼īï¼ļ": 7469,
      "èįĥ": 7470,
      "åĮĸä¸º": 7471,
      "çĦļ": 7472,
      "æµı": 7473,
      "åıĳéŁ³": 7474,
      "amp": 7475,
      "äº§çĶŁäºĨ": 7476,
      "æħķå°¼": 7477,
      "ï¼İ": 7478,
      "åĪĨåĮº": 7479,
      "Ġåħĥ": 7480,
      "å¤§éĥ¨ä»½": 7481,
      "è¯¥çīĩ": 7482,
      "æĮº": 7483,
      "è¿Ļåº§": 7484,
      "Ġ=": 7485,
      "è¾ĥä½İ": 7486,
      "å¤ªå®Ī": 7487,
      "æĥ³æ³ķ": 7488,
      "odice": 7489,
      "çľĭè§ģ": 7490,
      "ä¸ºé¦ĸ": 7491,
      "æĢ»çĽĳ": 7492,
      "ç©Ĺ": 7493,
      "æĮĩæĮ¥å®ĺ": 7494,
      "å¤©ä½¿": 7495,
      "è§ĤéŁ³": 7496,
      "æ¨¡çī¹": 7497,
      "ä¸»æīĵ": 7498,
      "åĲĮåŃ¦": 7499,
      "èĪĨ": 7500,
      "ç»´åŁĥ": 7501,
      "æıĲåĩºçļĦ": 7502,
      "ç»¼èīº": 7503,
      "ĠåŃĻ": 7504,
      "å¤ªéĺ³åħ¬": 7505,
      "åĲĪåĲĮ": 7506,
      "çıĬçĳļ": 7507,
      "ç¥ŀç§ĺ": 7508,
      "Ġre": 7509,
      "æ·±åħ¥": 7510,
      "æĪĺäºīä¸Ń": 7511,
      "ä½İäºİ": 7512,
      "é¢ĺæĿĲ": 7513,
      "è®¤åı¯": 7514,
      "æľ¬å±Ĭ": 7515,
      "å¤©åºľ": 7516,
      "åıĳè¾¾": 7517,
      "èĻı": 7518,
      "çĤ¸å¼¹": 7519,
      "åĲİåıĤåĬłä¼ļè¯ķ": 7520,
      "æĺ¯ä¸Ńåįİäººæ°ĳåħ±åĴĮåĽ½": 7521,
      "æ¼Ķè®²": 7522,
      "çľģçº§": 7523,
      "è®ºåĿĽ": 7524,
      "ä¸ĭè½½": 7525,
      "å·¥ä½ľå®¤": 7526,
      "é¡ºåºı": 7527,
      "èķĥ": 7528,
      "åħ«æľĪ": 7529,
      "çģŃç»Ŀ": 7530,
      "åŁºéļĨ": 7531,
      "è®©ä»ĸ": 7532,
      "ä¸ľæµ·": 7533,
      "ç¦ıåĪ©": 7534,
      "æł¼é²ģ": 7535,
      "ä¹ĭéĻħ": 7536,
      "çģ«æĺŁ": 7537,
      "(\"": 7538,
      "çļĦå¯¹": 7539,
      "æħĪåĸĦ": 7540,
      "çļĦä¸ŃåĽ½": 7541,
      "æį·åħĭ": 7542,
      "Î±": 7543,
      "ass": 7544,
      "å¸Ńä½į": 7545,
      "èĭį": 7546,
      "ä¹ĲåĻ¨": 7547,
      "1912": 7548,
      "EN": 7549,
      "Ġ14": 7550,
      "ä»İæľª": 7551,
      "ç±»ä¼¼çļĦ": 7552,
      "å¥ĸæľĢä½³": 7553,
      "æ¯ıä¸Ģ": 7554,
      "å¤ĸåĽ´": 7555,
      "èĮĦ": 7556,
      "çľł": 7557,
      "éĩĳåĪļ": 7558,
      "ä¸ĥæľĪ": 7559,
      "æĹ¥å¸¸": 7560,
      "æķ°ä¸º": 7561,
      "å±Ĭåħ¨åĽ½äººæ°ĳä»£è¡¨å¤§ä¼ļ": 7562,
      "çĳľ": 7563,
      "è¿Ľåı£": 7564,
      "çļĦéķ¿": 7565,
      "è®½": 7566,
      "è´¬": 7567,
      "çī©åĵģ": 7568,
      "åĽĽä¸ĸ": 7569,
      "ost": 7570,
      "å¤ªåİŁ": 7571,
      "çº³åħ¥": 7572,
      "çģ«è½¦": 7573,
      "éģĹä¼ł": 7574,
      "å®īåİ¿": 7575,
      "åŃŁåĬłæĭī": 7576,
      "åĨĽå§Ķ": 7577,
      "æĵ¦": 7578,
      "å¤§è¿ŀ": 7579,
      "ãĢĤ<": 7580,
      "ä»ħæ¬¡äºİ": 7581,
      "å¹¶ä¸įæĺ¯": 7582,
      "åĿ¤": 7583,
      "åı¸èģĮ": 7584,
      "åı²å¯Ĩæĸ¯": 7585,
      "å¸ĥæĸ¯": 7586,
      "æ³¨åħ¥": 7587,
      "çī©çĲĨåŃ¦": 7588,
      "CP": 7589,
      "æ··ä¹±": 7590,
      "ç»´ä¿®": 7591,
      "åħ±äº§ä¸»ä¹ī": 7592,
      "åİī": 7593,
      "æŁľ": 7594,
      "åı°å¸ģ": 7595,
      "ä»»å¤©åłĤ": 7596,
      "åĮĹä¾§": 7597,
      "åĸ»": 7598,
      "æİ¨ç¿»": 7599,
      "å¤§åŃĹ": 7600,
      "èĮĥåĽ´åĨħ": 7601,
      "åĲĮåĲį": 7602,
      "çĭĲ": 7603,
      "åľ°ä¸Ń": 7604,
      "æŁ¬": 7605,
      "éĢĶç»ı": 7606,
      "å½¢æĪĲçļĦ": 7607,
      "æŀģä¸º": 7608,
      "å¼ºçļĦ": 7609,
      "å±±çļĦ": 7610,
      "åħĥå¸ħ": 7611,
      "ä»įåľ¨": 7612,
      "åĽ½æĹĹ": 7613,
      "å¤ĸè§Ĥ": 7614,
      "age": 7615,
      "à¸": 7616,
      "ä¸ŃåİŁ": 7617,
      "ä¼¤å®³": 7618,
      "è¿Ĳç®Ĺ": 7619,
      "çº¤ç»´": 7620,
      "ä»»åĨħ": 7621,
      "éĢīç§Ģ": 7622,
      "æİĴè¡Įæ¦ľ": 7623,
      "ton": 7624,
      "çĶŁäº§çļĦ": 7625,
      "BD": 7626,
      "æ°Ķæ¸©": 7627,
      "åıĬåħ¶ä»ĸ": 7628,
      "æ¬ł": 7629,
      "æ£±": 7630,
      "åĽ´ç»ķå¤ªéĺ³åħ¬": 7631,
      "åıĳçĶŁäºĨ": 7632,
      "æĥ©": 7633,
      "åı°æ¹¾çļĦ": 7634,
      "åĲĳåįĹ": 7635,
      "æµĨ": 7636,
      "rom": 7637,
      "Ġè¿Ļé¢Ĺå°ıè¡ĮæĺŁ": 7638,
      "é²ģæĸ¯": 7639,
      "å®ĥä»¬çļĦ": 7640,
      "æ»¨æµ·": 7641,
      "èĭıå·ŀ": 7642,
      "ĠåĽĽ": 7643,
      "æł¼æŀĹ": 7644,
      "æ³ķåħ°åħĭ": 7645,
      "çļĦç»Ŀå¯¹æĺŁçŃīä¸º": 7646,
      "è¯¥çī©ç§įçļĦ": 7647,
      "è§Ĥèµı": 7648,
      "ç¼ĸç»Ħ": 7649,
      "çĪ¸": 7650,
      "å¿ĹæĦ¿": 7651,
      "éĢģåĪ°": 7652,
      "è¡¥åħħ": 7653,
      "æ³°åĭĴ": 7654,
      "æĺ¯ä¸Ģé¢ĹåĽ´ç»ķå¤ªéĺ³åħ¬": 7655,
      "ool": 7656,
      "å¤ļå¤«": 7657,
      "åŃĲå¼¹": 7658,
      "å®ĮæĪĲäºĨ": 7659,
      "èĲĿ": 7660,
      "æĺ¯èĭ±åĽ½": 7661,
      "å¼Ģå§ĭåľ¨": 7662,
      "æĺ¯ä¸Ģé¢ĹåĽ´ç»ķå¤ªéĺ³åħ¬è½¬çļĦå°ıè¡ĮæĺŁ": 7663,
      "æħķå°¼é»ĳ": 7664,
      "æĹ¶éĹ´ä¸º": 7665,
      "Ġè¿Ļé¢Ĺå°ıè¡ĮæĺŁçļĦç»Ŀå¯¹æĺŁçŃīä¸º": 7666,
      "èĭĶ": 7667,
      "ç¾İåĽ½æµ·åĨĽ": 7668,
      "ä¸»æķĻåº§åłĤ": 7669,
      "DNA": 7670,
      "ount": 7671,
      "å·¥åķĨ": 7672,
      "æĹ±": 7673,
      "åĶ¤": 7674,
      "ä¸ĵçĶ¨": 7675,
      "éŀĭ": 7676,
      "åºĵå°Ķ": 7677,
      "è¯Ħä¸º": 7678,
      "é»ĳæļĹ": 7679,
      "å¤©æ´¥å¸Ĥ": 7680,
      "å¤ļåĲį": 7681,
      "åĩºåħ¥åı£": 7682,
      "æĸ½å·¥": 7683,
      "åĲİåľ¨": 7684,
      "çİĭä½į": 7685,
      "èµĽè½¦": 7686,
      "æľ¬æĿ¥": 7687,
      "åŀĤçĽ´": 7688,
      "ish": 7689,
      "è®¾åľ¨": 7690,
      "äºĭåĬ¡æīĢ": 7691,
      "æĲºå¸¦": 7692,
      "äºīå¤º": 7693,
      "èı²åĪ©": 7694,
      "å±ķçİ°": 7695,
      "æııç»ĺ": 7696,
      "pp": 7697,
      "ç«ŀæĬĢ": 7698,
      "ung": 7699,
      "çº³å°Ķ": 7700,
      "æķ°åįģ": 7701,
      "An": 7702,
      "ç«ĭæ³ķä¼ļ": 7703,
      "çī©çļĦ": 7704,
      "çĤ³": 7705,
      "è½¦éģĵ": 7706,
      "èĳĹæľī": 7707,
      "è¡įçĶŁ": 7708,
      "åĴı": 7709,
      "åħµåĬĽ": 7710,
      "éĥ½ä¸į": 7711,
      "è¯ŀçĶŁ": 7712,
      "æ¯ıæ¬¡": 7713,
      "åİŁçĲĨ": 7714,
      "è§Ĥçľĭ": 7715,
      "åĩĨç¡®": 7716,
      "IG": 7717,
      "ä¸»å¯¼": 7718,
      "çī¹æĢ§": 7719,
      "çĽ¸éĤ»": 7720,
      "ĠçĦ¶èĢĮ": 7721,
      "land": 7722,
      "åĬłå·¥": 7723,
      "çļĦæīĢæľī": 7724,
      "åį³åı¯": 7725,
      "éĴĵ": 7726,
      "ube": 7727,
      "æŃ¤å¤©ä½ĵ": 7728,
      "æīĵè´¥": 7729,
      "900": 7730,
      "é¦ĸå°Ķ": 7731,
      "çķĻåŃ¦": 7732,
      "çİ¯çĲĥ": 7733,
      "\")": 7734,
      "æįī": 7735,
      "éĽ·è¾¾": 7736,
      "æ£Ģæµĭ": 7737,
      "ä¸įåıĺ": 7738,
      "çĶµè·¯": 7739,
      "éħ®": 7740,
      "ä¸īæľĪ": 7741,
      "åİ¿åŁİ": 7742,
      "çº§çļĦ": 7743,
      "éĵĿ": 7744,
      "ä¹ĭåľ°": 7745,
      "åħ¨çº¿": 7746,
      "åıĸå¾ĹäºĨ": 7747,
      "Ð¾": 7748,
      "åıĳçĶŁçļĦ": 7749,
      "æŁ¥å°Ķæĸ¯": 7750,
      "åįĹä¾§": 7751,
      "å¼ķçĶ¨": 7752,
      "åįıåķĨ": 7753,
      "ä»ĸè®¤ä¸º": 7754,
      "æľ¬ä¹¦": 7755,
      "æµģåĬ¨": 7756,
      "æµģéĩı": 7757,
      "åıĳå±ķçļĦ": 7758,
      "Ġä¸ĩ": 7759,
      "è¿ŀç»ĵ": 7760,
      "æľĢæľī": 7761,
      "åĨ²åĩ»": 7762,
      "å¹ķåºľ": 7763,
      "å¾Īå¤§çļĦ": 7764,
      "æī¹åĪ¤": 7765,
      "now": 7766,
      "æľ¬ä½ľ": 7767,
      "åĲĳåĮĹ": 7768,
      "å¾·æĦıå¿Ĺ": 7769,
      "çŁŃæľŁ": 7770,
      "æľ¬åľ°åĮº": 7771,
      "æħķå®¹": 7772,
      "æĶĢ": 7773,
      "åħ¨ä½ĵ": 7774,
      "äººæīį": 7775,
      "ä½Ĩåį´": 7776,
      "å®¢è½¦": 7777,
      "æŃ¢äºİ": 7778,
      "çļĦæŃĮæĽ²": 7779,
      "è¿½æ±Ĥ": 7780,
      "åĬłåĭĴ": 7781,
      "ä¼łè¾ĵ": 7782,
      "èģĮæ£Ĵ": 7783,
      "å·¦ç¿¼": 7784,
      "åĪĨä¹ĭ": 7785,
      "æĺı": 7786,
      "ä¸Ģéĥ¨åĪĨ": 7787,
      "ern": 7788,
      "ç¬¬åįģäºĮ": 7789,
      "æ¸ħçľŁ": 7790,
      "Ġè¾¾": 7791,
      "æī¿è¯º": 7792,
      "ä¹ŁæĽ¾": 7793,
      "åľ¨è¥¿": 7794,
      "å½¢çļĦ": 7795,
      "èĳ¡èĲĦçīĻè¯Ń": 7796,
      "ç²®é£Ł": 7797,
      "ä¸Ĭæ¸¸": 7798,
      "åĽŃåĮº": 7799,
      "ä¸ºæĸ°": 7800,
      "æľºæŀª": 7801,
      "åĮħåĲ«äºĨ": 7802,
      "è¢«æįķ": 7803,
      "å§ĭç»Ī": 7804,
      "åĪĿå¹´": 7805,
      "å¸ĪèĮĥå¤§åŃ¦": 7806,
      "çĶµæ±ł": 7807,
      "æĺ¯æľī": 7808,
      "çĴĭ": 7809,
      "ä¼ĬåĪ©": 7810,
      "èį«": 7811,
      "æłĸæģ¯åľ¨åºķ": 7812,
      "OR": 7813,
      "çļĦè½¨éģĵ": 7814,
      "åıĺæį¢": 7815,
      "æĶ¿åıĺ": 7816,
      "æııåĨĻ": 7817,
      "Ġä¸ºäºĨ": 7818,
      "éĻ¤æŃ¤ä¹ĭå¤ĸ": 7819,
      "åĪĨè§£": 7820,
      "è¡ĮæĶ¿åĮºåĪĴ": 7821,
      "éĻĦåĬł": 7822,
      "éĩĩçĶ¨äºĨ": 7823,
      "ç»ıçºª": 7824,
      "å½¢æĪĲäºĨ": 7825,
      "åī¥": 7826,
      "çļĦæľī": 7827,
      "æ©Ħ": 7828,
      "å¤§åħ¬": 7829,
      "Ġæ³ķ": 7830,
      "ä¿®éģĵéĻ¢": 7831,
      "éĩįè¿Ķ": 7832,
      "ä¹ĭä¸Ĭ": 7833,
      "åĲĮæĹ¥": 7834,
      "åĬŁçİĩ": 7835,
      "éĩĮéĿ¢": 7836,
      "ç¥ĸåħĪ": 7837,
      "ä¸¥éĩįçļĦ": 7838,
      "æīĢéľĢ": 7839,
      "äºĮæ¬¡": 7840,
      "ç»´åħĭ": 7841,
      "å¯Įæ±Ĺ": 7842,
      "å®£åĳĬ": 7843,
      "éĶ¥": 7844,
      "èĤ¡ä¸ľ": 7845,
      "åİĭç¼©": 7846,
      "é¢ģå¸ĥ": 7847,
      "IV": 7848,
      "èĥĢ": 7849,
      "âĢĿï¼ī": 7850,
      "æ¼Ĥ": 7851,
      "è¿Ĳæ²³": 7852,
      "åĨ»": 7853,
      "è½¬ä¸º": 7854,
      "åıįèĢĮ": 7855,
      "èµĽä¸Ń": 7856,
      "You": 7857,
      "åİĮ": 7858,
      "Play": 7859,
      "è¯ºè´Ŀå°Ķ": 7860,
      "éĨī": 7861,
      "åĪĳäºĭ": 7862,
      "æĮ¤": 7863,
      "åıĺç§į": 7864,
      "æĹŃ": 7865,
      "éĽħåħ¸": 7866,
      "çªĳ": 7867,
      "è®¨ä¼Ĳ": 7868,
      "çļĦæľºä¼ļ": 7869,
      "èİ·èĥľ": 7870,
      "å½ĵæĹ¥": 7871,
      "å½¼æŃ¤": 7872,
      "æ·³": 7873,
      "äºĴåĬ¨": 7874,
      "è¿Ļä¸¤ä¸ª": 7875,
      "æĶ¿åĬ¡": 7876,
      "ç»ĥä¹ł": 7877,
      "è£´": 7878,
      "1925": 7879,
      "é©¬åħĭæĢĿ": 7880,
      "åĭĺ": 7881,
      "Ġæ¯Ľ": 7882,
      "å¾·ç½Ĺ": 7883,
      "èĤ¯å®ļ": 7884,
      "1919": 7885,
      "åı¯åľ¨": 7886,
      "å¨ħ": 7887,
      "æ¸Ĳæ¸Ĳ": 7888,
      "åĨĽåľ¨": 7889,
      "åıĳçİ°äºĨæŃ¤å¤©ä½ĵ": 7890,
      "ä¸įçŁ¥": 7891,
      "çĸ¯": 7892,
      "çģŃäº¡": 7893,
      "ä¸Ńä¹¦": 7894,
      "å±¥": 7895,
      "ĠæŃ¦": 7896,
      "1918": 7897,
      "ç½ķé»ĺ": 7898,
      "Ġéľį": 7899,
      "æİ¢ç´¢": 7900,
      "Ġæĸĩ": 7901,
      "æľīäºĨ": 7902,
      "åĭĴæĸ¯": 7903,
      "ä»ħä»ħ": 7904,
      "å§ĭäºİ": 7905,
      "çĶŁæ´»åľ¨": 7906,
      "æŃī": 7907,
      "çļĦä¸ĸçķĮ": 7908,
      "ä¸ľåĮº": 7909,
      "-{}-": 7910,
      "é¢Ħå¤ĩ": 7911,
      "åħ¬å¼ı": 7912,
      "åĽłåħ¶": 7913,
      "ç½ĳä¸Ĭ": 7914,
      "è¿Ļæ®µ": 7915,
      "åĨħäºļ": 7916,
      "å¹¶ä¸Ķåľ¨": 7917,
      "çªģåĩº": 7918,
      "å¤ºåıĸ": 7919,
      "æ¬¡æĹ¥": 7920,
      "çļĦä¸»é¢ĺ": 7921,
      "å¥ĸéĩĳ": 7922,
      "æ²ĻçĶ°": 7923,
      "æĢ¨": 7924,
      "US": 7925,
      "ä»¥å¾Ģ": 7926,
      "ä¸įä½Ĩ": 7927,
      "éĩĮå¥¥": 7928,
      "åı²èĴĤ": 7929,
      "åĲĮæŃ¥": 7930,
      "å¥³ç¥ŀ": 7931,
      "ä¹Łçº³": 7932,
      "éĺ²å®Ī": 7933,
      "åı¤å·´": 7934,
      "åį°ç¬¬": 7935,
      "åĩºçīĪçļĦ": 7936,
      "å¼ºåĪ¶": 7937,
      "çº¦çĳŁå¤«": 7938,
      "åħ¬åĳĬ": 7939,
      "å°ıå§Ĳ": 7940,
      "æķ°çĻ¾": 7941,
      "è¸¢": 7942,
      "åįĹæĺĮ": 7943,
      "çŃīèģĮ": 7944,
      "é¢ĨåħĪ": 7945,
      "åį°è±¡": 7946,
      "ä¸īæ¬¡": 7947,
      "è§ģäºİ": 7948,
      "å¼ŁåŃĲ": 7949,
      "èµ£": 7950,
      "çļĦä»£è¡¨": 7951,
      "åĨľåľº": 7952,
      "å¤§åĲĮ": 7953,
      "çĽ´åįĩæľº": 7954,
      "å®ļä½į": 7955,
      "è¯īè®¼": 7956,
      "Google": 7957,
      "åī§åĽ¢": 7958,
      "å®¹çº³": 7959,
      "èĭ±éķĳ": 7960,
      "å½ĵéĢīä¸º": 7961,
      "çļĦåĲįç§°": 7962,
      "èĩĢ": 7963,
      "åĽŀåĲĪ": 7964,
      "èı©èĲ¨": 7965,
      "æľĢå¤ļçļĦ": 7966,
      "ç»§ä»»": 7967,
      "æ°¸è¿ľ": 7968,
      "æĪĲåĬŁçļĦ": 7969,
      "align": 7970,
      "æ¶µçĽĸ": 7971,
      "æĶ¿æ²»å®¶": 7972,
      "çļĦèĥ½åĬĽ": 7973,
      "1924": 7974,
      "é«ĺæŀ¶": 7975,
      "ĠSch": 7976,
      "æĬĢå·§": 7977,
      "Ġå¯¹": 7978,
      "çĪ±åĽ½": 7979,
      "æ°®": 7980,
      "æĢ§æł¼": 7981,
      "æ©Ħæ¦Ħ": 7982,
      "ä¸Ģç³»åĪĹ": 7983,
      "å¡Į": 7984,
      "æľªçŁ¥": 7985,
      "å½ĵä½ľ": 7986,
      "res": 7987,
      "åĸĿ": 7988,
      "çĤ¹æĺ¯": 7989,
      "éŁ¦å°Ķ": 7990,
      "è¿ªäºļ": 7991,
      "æĽ¹æĵį": 7992,
      "æľ¬åĲį": 7993,
      "çŁ¢": 7994,
      "å·Ŀåİ¿": 7995,
      "ä¸Ńå¿ĥçļĦ": 7996,
      "æ¬§åħĥ": 7997,
      "HD": 7998,
      "å®ŀè·µ": 7999,
      "åĪĻçĶ±": 8000,
      "è¡Įäºº": 8001,
      "Ġåĩ¯": 8002,
      "ä¿®è®¢": 8003,
      "åģļæ³ķ": 8004,
      "ĠåŁº": 8005,
      "åľ¨ä»ĸçļĦ": 8006,
      "è¿·ä½ł": 8007,
      "çļĦå±±å³°": 8008,
      "ros": 8009,
      "ä¸ºçĥŃå¸¦": 8010,
      "åĲİåıĪ": 8011,
      "æ¨¡å¼ıäº§": 8012,
      "è¯¥åľ°": 8013,
      "1914": 8014,
      "ç¼¸": 8015,
      "æĶ¿æ²»éĥ¨": 8016,
      "ç¾İå°¼äºļ": 8017,
      "æ®¿è¯ķ": 8018,
      "åĮĹå¹³": 8019,
      "è¯»èĢħ": 8020,
      "å¼Ģå·¥": 8021,
      "æľĢéĩįè¦ģçļĦ": 8022,
      "æ¯Ķå°Ķ": 8023,
      "çļĦå¤´": 8024,
      "åľ°äºļ": 8025,
      "è´¢åĬ¡": 8026,
      "è¯ĨåŃĹ": 8027,
      "pt": 8028,
      "å¼ĢåĲ¯": 8029,
      "ä¹ĭåĲį": 8030,
      "äºĭæĥħ": 8031,
      "ä¸Ģå¤©": 8032,
      "act": 8033,
      "åŃĺåľ¨çļĦ": 8034,
      "çªģåİ¥": 8035,
      "å¤§æī¹": 8036,
      "æľīä¸¤ä¸ª": 8037,
      "å·¡æĬļ": 8038,
      "tem": 8039,
      "æĦŁæĥħ": 8040,
      "çľ¼çĿ": 8041,
      "åľ¨è¿ĻéĩĮ": 8042,
      "å¤ļæł·": 8043,
      "åį°ç¬¬å®ī": 8044,
      "è¯»ä¹¦": 8045,
      "æĸĮ": 8046,
      "å¹¿å·ŀå¸Ĥ": 8047,
      "Ġå®ĭ": 8048,
      "çĥĤ": 8049,
      "ace": 8050,
      "æĪĸç§°": 8051,
      "åĩºèĩª": 8052,
      "éĺŁåıĭ": 8053,
      "éĻįéĽ¨": 8054,
      "che": 8055,
      "è¯¥åħļ": 8056,
      "ä¼¤äº¡": 8057,
      "çŃ¹å¤ĩ": 8058,
      "çļĦå¥³åĦ¿": 8059,
      "çĽ²": 8060,
      "æľ¬çīĩ": 8061,
      "åĺīåºĨ": 8062,
      "æľŁåĪĬ": 8063,
      "éĻ¢æł¡": 8064,
      "è®®å¸Ń": 8065,
      "160": 8066,
      "å¾·å·Ŀ": 8067,
      "åħŃæľĪ": 8068,
      "ç©Ĩç½ķé»ĺ": 8069,
      "åıĻè¿°": 8070,
      "å¹´æĪĲç«ĭ": 8071,
      "ä½ĵèĤ²é¦Ĩ": 8072,
      "æ²³åı£": 8073,
      "æłĩé¢ĺ": 8074,
      "æŃ£ä¹ī": 8075,
      "ĠSp": 8076,
      "éĥ½åı¯ä»¥": 8077,
      "åĽ¢éķ¿": 8078,
      "ä»ĸå¯¹": 8079,
      "é¥®é£Ł": 8080,
      "ç¥Ńç¥Ģ": 8081,
      "ood": 8082,
      "1913": 8083,
      "åĨ¢": 8084,
      "æĪĺèĥľ": 8085,
      "å¤ļä¸º": 8086,
      "èı²å°Ķå¾·": 8087,
      "è¿Ļç±»": 8088,
      "1922": 8089,
      "old": 8090,
      "å±¯éĹ¨": 8091,
      "ç§ī": 8092,
      "äº§çī©": 8093,
      "æµ·æ°´": 8094,
      "Ġ13": 8095,
      "åİ¿æ²»": 8096,
      "åĪ¤æĸŃ": 8097,
      "ä¸ĭåįĬ": 8098,
      "æīĭä¸Ń": 8099,
      "è£Ķç¾İåĽ½äºº": 8100,
      "Ġth": 8101,
      "éĿ¢åĲĳ": 8102,
      "æī¿æĭħ": 8103,
      "æĻºèĥ½": 8104,
      "ons": 8105,
      "å¸ĥåħ°": 8106,
      "çĨĶ": 8107,
      "ç§»å±ħ": 8108,
      "ä¹¡æĿĳ": 8109,
      "æ¯ıå°ıæĹ¶": 8110,
      "è¯ĨåĪ«": 8111,
      "ä¹ĭæĹ¶": 8112,
      "åĸī": 8113,
      "æŀ¢çº½": 8114,
      "åİ¨": 8115,
      "çļĦæĪĲç»©": 8116,
      "æľīä¸¤": 8117,
      "ĠèĴĻ": 8118,
      "èī³": 8119,
      "æĺĨæĺİ": 8120,
      "1926": 8121,
      "åĵģç§į": 8122,
      "ä»»æĦı": 8123,
      "æĿĥçļĦ": 8124,
      "ley": 8125,
      "äºĭåĲİ": 8126,
      "ç³ķ": 8127,
      "ä¼łéĢĴ": 8128,
      "éľĸ": 8129,
      "åĨĻéģĵ": 8130,
      "è®¤ä¸ºæĺ¯": 8131,
      "å®£è¨Ģ": 8132,
      "èĽĻ": 8133,
      "å®ĪæĬ¤": 8134,
      "ä¸¢": 8135,
      "éķ¶": 8136,
      "å¾·åħĭ": 8137,
      "arl": 8138,
      "éĻĨåľ°": 8139,
      "ground": 8140,
      "é«ĺäºİ": 8141,
      "åıįæĬĹ": 8142,
      "å§ĵæ°ı": 8143,
      "èĽ¤": 8144,
      "Ġ1999": 8145,
      "ram": 8146,
      "æķ°çĽ®": 8147,
      "è´Ńçī©": 8148,
      "è¿ĲåĬ¨çļĦ": 8149,
      "åĵº": 8150,
      "åħ±åĴĮåħļ": 8151,
      "éĥ¨ç½²": 8152,
      "è¾ĥé«ĺ": 8153,
      "æłĩè®°": 8154,
      "å²Ĳ": 8155,
      "ä¹ĿæľĪ": 8156,
      "æ¦´": 8157,
      "çļ®èĤ¤": 8158,
      "å¹³çŃī": 8159,
      "AD": 8160,
      "back": 8161,
      "æŃ£æĺ¯": 8162,
      "åĵģè´¨": 8163,
      "é«ĺéĽĦå¸Ĥ": 8164,
      "Th": 8165,
      "Ġstyle": 8166,
      "åĲĳä¸ľ": 8167,
      "ä»¥åıĬä¸ŃåĽ½å¤§éĻĨçļĦ": 8168,
      "ç®¡åĪ¶": 8169,
      "Ġå¯¹äºİ": 8170,
      "åį°åº¦å°¼è¥¿äºļ": 8171,
      "è¿«ä½¿": 8172,
      "çķĮçļĦ": 8173,
      "ç¬¬äºĮä¸ª": 8174,
      "FC": 8175,
      "ç©¿è¿ĩ": 8176,
      "å¼¹èį¯": 8177,
      "å°¸ä½ĵ": 8178,
      "äºļåĪ©": 8179,
      "æ·»åĬł": 8180,
      "ction": 8181,
      "112": 8182,
      "åī§ä¸Ń": 8183,
      "ç©¿è¶Ĭ": 8184,
      "èº²": 8185,
      "åį³æĺ¯": 8186,
      "åľ°åŁŁ": 8187,
      "åİŁæľī": 8188,
      "åĥļ": 8189,
      "ove": 8190,
      "çĳĻ": 8191,
      "æĴĳ": 8192,
      "åĩŃåĢŁ": 8193,
      "äºĮæľĪ": 8194,
      "éĩĳæĽ²": 8195,
      "æ²ŁéĢļ": 8196,
      "æ¢Ń": 8197,
      "åĽŀçŃĶ": 8198,
      "æ¯ıä¸Ģä¸ª": 8199,
      "åŁºæľ¬ä¸Ĭ": 8200,
      "å·´åĭĴ": 8201,
      "2019": 8202,
      "è¿Ļéĥ¨": 8203,
      "æ²¡æľīä»»ä½ķ": 8204,
      "çļĦæĹ¥æľ¬": 8205,
      "åħ¶é¡¿": 8206,
      "åľ¨åĨħ": 8207,
      "çĶ²çº§èģĶèµĽ": 8208,
      "å¹´æĺ¥": 8209,
      "äº¤åĵį": 8210,
      "éĺ¿å¯Įæ±Ĺ": 8211,
      "æĬĹæĪĺ": 8212,
      "ĠæĹł": 8213,
      "çļĦä¸Ģä½į": 8214,
      "é«ĺæł¡": 8215,
      "åĪ¶æĪĲ": 8216,
      "ann": 8217,
      "ç«ĭæĸ¹ç±³": 8218,
      "æĺ¯å¤§": 8219,
      "é¢Ĩå¯¼çļĦ": 8220,
      "iel": 8221,
      "å°¼æ³Ĭ": 8222,
      "çļĦè¯´æ³ķ": 8223,
      "ãĢįï¼Ľ": 8224,
      "æµģç»ı": 8225,
      "ç½Ĺé©¬å¤©ä¸»æķĻ": 8226,
      "çĽĴ": 8227,
      "æľºåĬ¨": 8228,
      "è½¨éģĵäº¤éĢļ": 8229,
      "åıĮæīĵ": 8230,
      "èĻļæĭŁ": 8231,
      "çĻ¾ç§ĳ": 8232,
      "è¯ĹæŃĮ": 8233,
      "é£ŀè¡Įåĳĺ": 8234,
      "çºªå½ķçīĩ": 8235,
      "ç«ĭæ³ķå§Ķåĳĺ": 8236,
      "Ġä¸Ńåįİäººæ°ĳåħ±åĴĮåĽ½": 8237,
      "çŁ¥åºľ": 8238,
      "è¿ģç§»": 8239,
      "åīįæĿ¥": 8240,
      "åľ¨ä½į": 8241,
      "çİ¯ä¿Ŀ": 8242,
      "éŀį": 8243,
      "åĴĴ": 8244,
      "åıĤæķ°": 8245,
      "æł¼æĭīæĸ¯": 8246,
      "æĪ¿éĹ´": 8247,
      "æľīçº¿": 8248,
      "é£İæĻ¯": 8249,
      "æķ°çłģ": 8250,
      "æ»¥": 8251,
      "è¶ħçº§èģĶèµĽ": 8252,
      "å±ħä½ıåľ¨": 8253,
      "å¹´æľŁéĹ´": 8254,
      "æĢ§åĴĮ": 8255,
      "ä¸ºä¸Ģä¸ª": 8256,
      "éĩįçļĦ": 8257,
      "æ³½å°Ķ": 8258,
      "éĢīä¸¾ä¸Ń": 8259,
      "è°¨": 8260,
      "åı¸æľº": 8261,
      "åĽłæŃ¤åľ¨": 8262,
      "åĩ¸": 8263,
      "æŃ¼": 8264,
      "äººçĶŁ": 8265,
      "èģĤ": 8266,
      "åĮĹäº¬å¤§åŃ¦": 8267,
      "ä¸ĢæĶ¯": 8268,
      "å±Ģå±Ģéķ¿": 8269,
      "è¯¥çī©ç§įçļĦæ¨¡å¼ıäº§": 8270,
      "éħ¯": 8271,
      "å±ħå§Ķä¼ļ": 8272,
      "åĤ¨åŃĺ": 8273,
      "æĶ¹èī¯": 8274,
      "çļĦåľ£": 8275,
      "éĴł": 8276,
      "BM": 8277,
      "è¢«æĿĢ": 8278,
      "Ġè¿Ļä¸ª": 8279,
      "å¼ºå¤§çļĦ": 8280,
      "åĮł": 8281,
      "å¤ıå¨ģ": 8282,
      "ç»ıè´¹": 8283,
      "ç¬¬ä¸Ģæ¬¡ä¸ĸçķĮå¤§æĪĺ": 8284,
      "ç»ĪæŃ¢": 8285,
      "ä¸ºçĶ±": 8286,
      "éĹ®é¢ĺçļĦ": 8287,
      "ä½Ĩæĺ¯åľ¨": 8288,
      "è½°çĤ¸æľº": 8289,
      "çļĦçī¹æľīæ¤įçī©": 8290,
      "çĳ¶": 8291,
      "åĿĩæľī": 8292,
      "ax": 8293,
      "è¿ĩäºİ": 8294,
      "æ³ķåħ°è¥¿": 8295,
      "éĺľ": 8296,
      "åŁĶå¯¨": 8297,
      "æ¯ĹéĤ»": 8298,
      "çħĮ": 8299,
      "çłĶåĪ¶": 8300,
      "å¦¥": 8301,
      "ä»ĭçŁ³": 8302,
      "ä¸ľæ±ī": 8303,
      "çĽŁåĨĽ": 8304,
      "äºĨä¸ĢäºĽ": 8305,
      "å¸ĸ": 8306,
      "ãģĦ": 8307,
      "æ´ªæŃ¦": 8308,
      "åľ¨ä¸Ĭæµ·": 8309,
      "æĪļ": 8310,
      "Ġä½ķ": 8311,
      "æĭīå¤ļ": 8312,
      "æ°´æ·±": 8313,
      "è´Łè´£äºº": 8314,
      "ES": 8315,
      "å¤©æĸĩåŃ¦": 8316,
      "ä¸ĬéĿ¢": 8317,
      "ç¾¤ä½ĵ": 8318,
      "Ġåħī": 8319,
      "æł¼æĸ¯": 8320,
      "æ£ļ": 8321,
      "çĶ·åŃ©": 8322,
      "æŁ¬åŁĶå¯¨": 8323,
      "And": 8324,
      "æĹ¶åĪ»": 8325,
      "å·©": 8326,
      "çĽ´è¾ĸ": 8327,
      "æĿ¡çĽ®": 8328,
      "ç®ĢåįķçļĦ": 8329,
      "åºµ": 8330,
      "é»Ľ": 8331,
      "éºĵ": 8332,
      "ä¹ĭåĨħ": 8333,
      "æŀ«": 8334,
      "æĺİä»£": 8335,
      "å¤ĸäº¤éĥ¨": 8336,
      "è¾ĥå°ĳ": 8337,
      "åłĤåĮº": 8338,
      "ä¸»ä½ĵ": 8339,
      "å¹³å®ļ": 8340,
      "æĳĶ": 8341,
      "åī¯éĥ¨éķ¿": 8342,
      "èĢĥå¯Ł": 8343,
      "æĬĳåĪ¶": 8344,
      "å¹´äºİ": 8345,
      "æĭ¿çł´": 8346,
      "EM": 8347,
      "Ġ1998": 8348,
      "åħĥæľĿ": 8349,
      "æĸĩåĮĸå¤§éĿ©åĳ½": 8350,
      "å®¹éĩı": 8351,
      "éĻ¨åĿĳ": 8352,
      "ä¸ģçĽ®": 8353,
      "èı±": 8354,
      "çĩĥçĥ§": 8355,
      "ä¾¿æĺ¯": 8356,
      "äººæ¬¡": 8357,
      "æĽ¾æĺ¯": 8358,
      "å±±åľ°": 8359,
      "ç¹ģæ®ĸ": 8360,
      "å¼Ģå§ĭäºĨ": 8361,
      "æľīåı¯èĥ½": 8362,
      "çĹķ": 8363,
      "lat": 8364,
      "åĮª": 8365,
      "å¾ĹåĪĨ": 8366,
      "ä¸Ģå¼Ģå§ĭ": 8367,
      "æķĻå¾Ĵ": 8368,
      "åİŁåĪĽ": 8369,
      "åİŁæĿ¥çļĦ": 8370,
      "å¼Ĥå¸¸": 8371,
      "åħ¥å¢ĥ": 8372,
      "æĻºåĪ©": 8373,
      "CH": 8374,
      "å±±åĿ¡": 8375,
      "ç»´ä¹Łçº³": 8376,
      "æīĵå¼Ģ": 8377,
      "æ¶¨": 8378,
      "æĭ¿ä¸ĭ": 8379,
      "ä¸½èİİ": 8380,
      "æ³ª": 8381,
      "éħ¿": 8382,
      "æĪĬ": 8383,
      "ath": 8384,
      "æ¶īå«Į": 8385,
      "ç«£": 8386,
      "äººæ°ĳæ³ķéĻ¢": 8387,
      "çī§å¸Ī": 8388,
      "çŃīå¾ħ": 8389,
      "åŀ¦": 8390,
      "ä¸ĵåĮº": 8391,
      "æ¼Ĩ": 8392,
      "ç¤¾åĽ¢": 8393,
      "æĭīçī¹": 8394,
      "çķľ": 8395,
      "é±¼éĽ·": 8396,
      "ç±»åŀĭçļĦ": 8397,
      "åľ¨å½ĵæĹ¶": 8398,
      "ĠTh": 8399,
      "ãĢĭ(": 8400,
      "å¤ıå¨ģå¤·": 8401,
      "åı°åįĹå¸Ĥ": 8402,
      "è®¤å®ļ": 8403,
      "çīº": 8404,
      "æĹ¥è¢«": 8405,
      "åĲįèªī": 8406,
      "1911": 8407,
      "é¡ºæ²»": 8408,
      "éĺĢ": 8409,
      "å¼ºåĮĸ": 8410,
      "æĭ¿çł´ä»ĳ": 8411,
      "ence": 8412,
      "éļıæľº": 8413,
      "èµ¢å¾ĹäºĨ": 8414,
      "åĽ½å®¶è¶³çĲĥéĺŁ": 8415,
      "å¹´èİ·å¾Ĺ": 8416,
      "ä¸īä½į": 8417,
      "ä¸Ģåħ±": 8418,
      "å®ľåħ°": 8419,
      "ä¸ĵåĪ©": 8420,
      "å·¥ä½ľçļĦ": 8421,
      "éķ¿æĺ¥": 8422,
      "ivers": 8423,
      "æĶ¿åįıå§Ķåĳĺ": 8424,
      "èĻŀ": 8425,
      "èŀºæĹĭ": 8426,
      "çĶ°å¾Ħ": 8427,
      "èĴĭä»ĭçŁ³": 8428,
      "è¿Ļä¸¤": 8429,
      "1917": 8430,
      "å¸Įçī¹åĭĴ": 8431,
      "æıĲä¾ĽçļĦ": 8432,
      "ç¦»å©ļ": 8433,
      "åĮ£": 8434,
      "é¦ĸé¢Ĩ": 8435,
      "Cl": 8436,
      "æĭħå½ĵ": 8437,
      "ç¼Ķ": 8438,
      "è¾±": 8439,
      "ç¦ıçī¹": 8440,
      "å¾Ļ": 8441,
      "åĩºåľŁ": 8442,
      "ç¬¬ä¸īæ¬¡": 8443,
      "æ¸ħçľŁå¯º": 8444,
      "èĭ¥å¹²": 8445,
      "å¤§å¸Ŀ": 8446,
      "ä¼ĲåĪ©äºļ": 8447,
      "è´Ŀåħĭ": 8448,
      "åħ°å·ŀ": 8449,
      "çľ¼çĿĽ": 8450,
      "éĵħ": 8451,
      "åĭ¾": 8452,
      "æ¤Ĵ": 8453,
      "éĩįåºĨå¸Ĥ": 8454,
      "éĩįç»Ħ": 8455,
      "ä¸ªåĽ½å®¶": 8456,
      "èį£èİ·": 8457,
      "éĽįæŃ£": 8458,
      "çļĦåħī": 8459,
      "ç¦»å¿ĥ": 8460,
      "åľ¨è¿Ļä¸ª": 8461,
      "çļĦå¤§åŀĭ": 8462,
      "ç¡¬å¸ģ": 8463,
      "é¥ŃåºĹ": 8464,
      "çļĦå¼Ģ": 8465,
      "åľ°åĲį": 8466,
      "æłĸæģ¯æ·±åº¦": 8467,
      "éķ¿å¤§": 8468,
      "æ°ĳç±į": 8469,
      "æ³ķä»¤": 8470,
      "åĮ»å¸Ī": 8471,
      "Ġ0": 8472,
      "çłĶç©¶ä¸Ńå¿ĥ": 8473,
      "Lin": 8474,
      "è½¦æīĭ": 8475,
      "æİ¥ç®¡": 8476,
      "é»ĳäºº": 8477,
      "ç²¾ç¡®": 8478,
      "æĪĺèĪ°": 8479,
      "EE": 8480,
      "Ġè¯º": 8481,
      "æµģæµª": 8482,
      "åĳ¨æģ©": 8483,
      "åŃĻä¸Ńå±±": 8484,
      "ä¸ĵç§ĳ": 8485,
      "çİĩåĨĽ": 8486,
      "IA": 8487,
      "è§Ĥå¿µ": 8488,
      "èµ·æºĲ": 8489,
      "åĲĳè¥¿": 8490,
      "åħħåĪĨ": 8491,
      "èī¯å¥½": 8492,
      "ä¸Ĭè¯ī": 8493,
      "æĮĩè´£": 8494,
      "åıĹåĪ°äºĨ": 8495,
      "çħ§é¡¾": 8496,
      "çļĦéģĵè·¯": 8497,
      "å¹´æ¬§æ´²": 8498,
      "é«ĺä¸½": 8499,
      "åºĦæĿĳ": 8500,
      "æĹ§éĩĳå±±": 8501,
      "æľĪå¼Ģå§ĭ": 8502,
      "å¼ĢåıĳçļĦ": 8503,
      "èĩ´åĬĽäºİ": 8504,
      "èµĽçļĦ": 8505,
      "é¹ĥ": 8506,
      "1923": 8507,
      "140": 8508,
      "Ġæ²ĥ": 8509,
      "åħ¶åŃĲ": 8510,
      "è¯¥åºĦ": 8511,
      "åįķæīĵ": 8512,
      "èİ·å¥ĸ": 8513,
      "ç¦ıå°Ķ": 8514,
      "å®¿èĪį": 8515,
      "åħŃä¸ª": 8516,
      "ä¹¦åĨĻ": 8517,
      "Ġå¹´": 8518,
      "æķ°åĢ¼": 8519,
      "åŁºçĿ£å¾Ĵ": 8520,
      "ç¬ĥ": 8521,
      "åīįéĶĭ": 8522,
      "Ġæ¬§": 8523,
      "çĶµå½±èĬĤ": 8524,
      "åıĹæįŁ": 8525,
      "åŃ£åĲİ": 8526,
      "åĺĽ": 8527,
      "æĺĨèĻ«": 8528,
      "å§Ĭå¦¹": 8529,
      "é²Īå½¢çĽ®": 8530,
      "ä»ĸè¯´": 8531,
      "åĮĹéŃı": 8532,
      "çķ´": 8533,
      "ç«ĭéĻ¶": 8534,
      "äºĳåįĹçľģ": 8535,
      "çıŃæ¬¡": 8536,
      "éķ¿çº¦": 8537,
      "ä¸¾äºº": 8538,
      "ç¾İåĽ½åĽ½å®¶": 8539,
      "æĽ¾ä¸º": 8540,
      "èĥĮé³į": 8541,
      "ĠéĥŃ": 8542,
      "1921": 8543,
      "æµģåŁŁéĿ¢ç§¯": 8544,
      "ä¾Ľå¥ī": 8545,
      "ile": 8546,
      "æ²¿çĶ¨": 8547,
      "å®ĥåľ¨": 8548,
      "é¥±": 8549,
      "ç©Ĩç½ķé»ĺå¾·": 8550,
      "å¤ļåħĥ": 8551,
      "é¦Ļæ¸¯çļĦ": 8552,
      "åıĪåľ¨": 8553,
      "æľĢé«ĺæ³ķéĻ¢": 8554,
      "ãĢĮãĢį": 8555,
      "åĨľåİĨ": 8556,
      "å®ļå¾ĭ": 8557,
      "åĪĴå½Ĵ": 8558,
      "æŁ´æ²¹æľºè½¦": 8559,
      "ĠéĿĴ": 8560,
      "å¹³å®ī": 8561,
      "æĥħç»ª": 8562,
      "èĭ±åĽ½çļĦ": 8563,
      "éĴ¢éĵģ": 8564,
      "çĲĥè¿·": 8565,
      "ime": 8566,
      "ç¡ķå£«åŃ¦ä½į": 8567,
      "ä½ĵç§¯": 8568,
      "æĹıçļĦ": 8569,
      "èĽ®": 8570,
      "éļ¾æ°ĳ": 8571,
      "çļĦä¸Ģä¸ªåİ¿": 8572,
      "æĢ»åħ±": 8573,
      "æ¯įèĪ°": 8574,
      "åºĲ": 8575,
      "èģĮåĳĺ": 8576,
      "æ¸©æ³ī": 8577,
      "ode": 8578,
      "è¿ĽèĢĮ": 8579,
      "1909": 8580,
      "é¦ĸä»»": 8581,
      "ä½įäºİè¯¥åĽ½ä¸Ńéĥ¨": 8582,
      "éĵ¶æ²³": 8583,
      "ä¸ĢæĹ¦": 8584,
      "å¤§å°ĨåĨĽ": 8585,
      "å¹¿æĴŃçĶµåı°": 8586,
      "èµ·çĤ¹": 8587,
      "æ¥ł": 8588,
      "Ġcol": 8589,
      "åıĳæİĺ": 8590,
      "åıĤè§ģ": 8591,
      "æķ°ä¸ª": 8592,
      "éĢłåŀĭ": 8593,
      "ç»ĨèıĮ": 8594,
      "ĠAl": 8595,
      "æĺ¯å¯¹": 8596,
      "åı¯ä»¥éĢļè¿ĩ": 8597,
      "æ¸¸æĪıä¸Ń": 8598,
      "ĠåĨħ": 8599,
      "ĠåİŁ": 8600,
      "ç³Ĭ": 8601,
      "éĽĨçļĦ": 8602,
      "æĺ¯å·´è¥¿": 8603,
      "é©¬åħ¶é¡¿": 8604,
      "å¹´æĿ¥": 8605,
      "åĽ½æľī": 8606,
      "æĿ°åĩº": 8607,
      "æĹ¥ä¸¾è¡Į": 8608,
      "æµıè§Ī": 8609,
      "çķı": 8610,
      "åį³ä¸º": 8611,
      "çīĪæľ¬çļĦ": 8612,
      "è´Ŀæł¼": 8613,
      "ĠåĽłä¸º": 8614,
      "ä¸Ģèĩ³": 8615,
      "æ°ĳæĶ¿": 8616,
      "åĲİæĸ¹": 8617,
      "æķ´çĲĨ": 8618,
      "Ġæ±Ł": 8619,
      "åħ¬ç¤¾": 8620,
      "æķĻç§ĳ": 8621,
      "éĢīä¸Ń": 8622,
      "æĶ¹è£ħ": 8623,
      "åģľè½¦åľº": 8624,
      "äºĭåıĺ": 8625,
      "ç«ĭæ³ķéĻ¢": 8626,
      "éĴ§": 8627,
      "è¿ĳå¹´æĿ¥": 8628,
      "è¢«åıĳçİ°": 8629,
      "ames": 8630,
      "ĠéĩĮ": 8631,
      "åıĤè§Ĥ": 8632,
      "ä¼¯æł¼": 8633,
      "ä¸ĭæĸ¹": 8634,
      "çĵ£": 8635,
      "å°¼æ³Ĭå°Ķ": 8636,
      "åı¦ä¸Ģç§į": 8637,
      "å¹¶æľī": 8638,
      "åľ°ä¸Ńæµ·": 8639,
      "åĴĮå¤§": 8640,
      "ç«¯çļĦ": 8641,
      "åľ°å¤Ħ": 8642,
      "æ¾İ": 8643,
      "ç«ĭéĻ¶å®Ľ": 8644,
      "åİ¿éķ¿": 8645,
      "æīĺå°Ķ": 8646,
      "å¹´ä»£åĪĿ": 8647,
      "çģµéŃĤ": 8648,
      "åŀ£": 8649,
      "éĺİ": 8650,
      "æ£ł": 8651,
      "è´¹å°Ķ": 8652,
      "çīºçī²": 8653,
      "æĻ®é²ģå£«": 8654,
      "ä¹ĭæĦı": 8655,
      "çĶµæµģ": 8656,
      "ä»£æķ°": 8657,
      "åĳ½åĲįçļĦ": 8658,
      "è´¿": 8659,
      "è§£éĻ¤": 8660,
      "èĤ¡æĿĥ": 8661,
      "æĪĺè´¥": 8662,
      "åħļç»Ħ": 8663,
      "ç½ĳé¡µ": 8664,
      "å°ºå¯¸": 8665,
      "å°±ä»»": 8666,
      "ä½Ĩä¸į": 8667,
      "éģĵæķĻ": 8668,
      "çªģåĩ»": 8669,
      "éĹ¹": 8670,
      "æ¼³": 8671,
      "æĻ¶ä½ĵ": 8672,
      "ä¸ªä½ĵ": 8673,
      "ris": 8674,
      "æ¬º": 8675,
      "åĲĮå¿Ĺ": 8676,
      "æ°´éĩı": 8677,
      "æĹĹä¸ĭçļĦ": 8678,
      "ä»ĸäºº": 8679,
      "å¾ĢæĿ¥": 8680,
      "ĠåĽ½éĻħ": 8681,
      "ä¸ĭæĿ¥çļĦ": 8682,
      "æ¨¡ä»¿": 8683,
      "ä¸»æķĻç»ĥ": 8684,
      "å»¿": 8685,
      "çľŁæŃ£çļĦ": 8686,
      "èĥ½åľ¨": 8687,
      "äºļç¾İå°¼äºļ": 8688,
      "äº¤æĪĺ": 8689,
      "åħ¬åĬ¡": 8690,
      "ä¸ļä½Ļ": 8691,
      "æİ¨æµĭ": 8692,
      "æµ´": 8693,
      "é¢ģå¥ĸåħ¸ç¤¼": 8694,
      "å¸ĥç½Ĺ": 8695,
      "ç½ĳåıĭ": 8696,
      "ä»¥å¤ĸçļĦ": 8697,
      "ç¼ĸåĨĻ": 8698,
      "çĲĨåŃ¦": 8699,
      "ä¸Ĭå°Ĩ": 8700,
      "æĿĳæ°ĳ": 8701,
      "éĿ©åĳ½åĨĽ": 8702,
      "çĭ¬çī¹çļĦ": 8703,
      "çļĦè®¡åĪĴ": 8704,
      "åľ¨åīį": 8705,
      "åıĹå®³": 8706,
      "åĪĴåĪĨ": 8707,
      "æĪĪå°Ķ": 8708,
      "æ²Ļæ¼ł": 8709,
      "å¯Įå£«": 8710,
      "åĽłåºĶ": 8711,
      "ĠæŃ£": 8712,
      "åħ¬å¯ĵ": 8713,
      "å¸¸å§Ķä¼ļ": 8714,
      "ä¸ĭæ¸¸": 8715,
      "å¤ªå®Ĺ": 8716,
      "å®Įæķ´çļĦ": 8717,
      "å¹´æīį": 8718,
      "å±ŀçļĦåĬ¨çī©": 8719,
      "æĮĩçļĦæĺ¯": 8720,
      "éĢĤçĶ¨äºİ": 8721,
      "åĲ¦è®¤": 8722,
      "æĹıèĩªæ²»": 8723,
      "å¤įæ´»": 8724,
      "åħ¥åĽ´": 8725,
      "ç»ĩçĶ°": 8726,
      "é¥¥": 8727,
      "æĻ®åıĬ": 8728,
      "æĶ¯çº¿": 8729,
      "æĹ¨åľ¨": 8730,
      "éĿ¢ä¸Ĭ": 8731,
      "ium": 8732,
      "çīŁ": 8733,
      "åĵŃ": 8734,
      "æ¬¡åĪĹè½¦": 8735,
      "ä¹¦æ³ķ": 8736,
      "Ġé²ģ": 8737,
      "åĪĹå®ģ": 8738,
      "è·ĳéģĵ": 8739,
      "èĩ³æŃ¤": 8740,
      "Ġæ´Ľ": 8741,
      "ä¹ĲåĽŃ": 8742,
      "ä¿¡ä»»": 8743,
      "1500": 8744,
      "Ġon": 8745,
      "Ġä½Ĩ": 8746,
      "é³ī": 8747,
      "åıĳè¡¨äºĨ": 8748,
      "åĵºä¹³": 8749,
      "ç¬Ľ": 8750,
      "äºļåĪ©æ¡ĳ": 8751,
      "çĽ¸æľº": 8752,
      "éĢļå¸¸æĺ¯": 8753,
      "å¹´äººåı£æĻ®æŁ¥": 8754,
      "æĻ¯çĤ¹": 8755,
      "ĠâĢ": 8756,
      "ç»ĵè®º": 8757,
      "é¢Į": 8758,
      "è¯įæ±ĩ": 8759,
      "5000": 8760,
      "Ġåħ«": 8761,
      "Ġçº¦ç¿°": 8762,
      "codice": 8763,
      "å¤ıå¤©": 8764,
      "ä¾¦å¯Ł": 8765,
      "å¹´ä»¥æĿ¥": 8766,
      "åĽ½åħ±": 8767,
      "å¤ªéĥİ": 8768,
      "èµ·äºĨ": 8769,
      "é³Ĺ": 8770,
      "çŀĦ": 8771,
      "éĺ²ç©º": 8772,
      "ä¸»äºĭ": 8773,
      "åĳ½è¿Ĳ": 8774,
      "Ġ1949": 8775,
      "çºªå¿µç¢ĳ": 8776,
      "äºļç§ĳ": 8777,
      "çĻ½äºº": 8778,
      "ĠåĲİ": 8779,
      "æĺ¯ä¸Ģä¸ªä½įäºİ": 8780,
      "æŃĩå°Ķ": 8781,
      "åįģä¸īå¹´": 8782,
      "Ġå°½ç®¡": 8783,
      "å·ŀéķ¿": 8784,
      "å¢ŀè®¾": 8785,
      "å°±è¯»äºİ": 8786,
      "att": 8787,
      "éŁ¶": 8788,
      "èº«äº¡": 8789,
      "MP": 8790,
      "Ġåı¶": 8791,
      "æ°´åĪ©": 8792,
      "Station": 8793,
      "ical": 8794,
      "ä¼ĳæģ¯": 8795,
      "éĥ½æ²¡æľī": 8796,
      "åľ¨éĤ£éĩĮ": 8797,
      "æ·Ģ": 8798,
      "å¹´ä¸ĸçķĮæĿ¯": 8799,
      "çī©èµĦ": 8800,
      "å¯¼å¸Ī": 8801,
      "æĲŃè½½": 8802,
      "æľ¯è¯Ń": 8803,
      "å¤ļä¼¦": 8804,
      "åĩ¹": 8805,
      "ä¹ĭå¥³": 8806,
      "äºĪä»¥": 8807,
      "å¹´æĪĲä¸º": 8808,
      "æĪĮ": 8809,
      "å¸ľ": 8810,
      "è·¯ç«Ļ": 8811,
      "é²¨": 8812,
      "çİ¯ç»ķ": 8813,
      "å½¬": 8814,
      "äººä½ĵ": 8815,
      "åĵĪåĪ©": 8816,
      "çļĦåĽĽ": 8817,
      "æĻļæľŁ": 8818,
      "åľ£è¯ŀ": 8819,
      "æĸĩå¸Ŀ": 8820,
      "æıĲåīį": 8821,
      "ç»´åŁº": 8822,
      "èİ·åıĸ": 8823,
      "ä¾ĿéĿł": 8824,
      "ä¸Ĭæĸ¹": 8825,
      "ç´¯ç§¯": 8826,
      "æĸ°åŁİ": 8827,
      "åįİåĮĹ": 8828,
      "æµ·åºķ": 8829,
      "åĲ¾å°Ķ": 8830,
      "æĪĲåĮĸ": 8831,
      "Ð¸": 8832,
      "çİĭå®¤": 8833,
      "åı°æ¹¾çľģ": 8834,
      "çļĦæīĭ": 8835,
      "ä¸ºè¾Ĳé³įé±¼çº²é²Īå½¢çĽ®": 8836,
      "çļĦç»ıæµİ": 8837,
      "ä½£": 8838,
      "éĽķå¡ĳ": 8839,
      "è¤Ĳèī²": 8840,
      "èĢ¶å°Ķ": 8841,
      "èĢ¶å¤«": 8842,
      "éĺ¿å°Ķå·´": 8843,
      "è§ģåĪ°": 8844,
      "ä¸īåĲį": 8845,
      "int": 8846,
      "çļĦä¸Ģæ¬¡": 8847,
      "%ï¼Ľ": 8848,
      "å·´ä¼ĲåĪ©äºļ": 8849,
      "äº§éĩı": 8850,
      "ä»¥åħ¶": 8851,
      "èĭıç»´åŁĥ": 8852,
      "åıĳçĶŁäºİ": 8853,
      "å½Ĺ": 8854,
      "åĳ¼åĲ¸": 8855,
      "èİ±æĸ¯": 8856,
      "éĤ£ä¸ª": 8857,
      "ç½©": 8858,
      "åĲĪçĲĨ": 8859,
      "éĤ£æł·": 8860,
      "å¯ºéĻ¢": 8861,
      "å½Ĵç±»": 8862,
      "è¯ŃéŁ³": 8863,
      "ke": 8864,
      "æŃ£æľĪ": 8865,
      "æĸ°åĮĹå¸Ĥ": 8866,
      "å¹¸ç¦ı": 8867,
      "å°±è¢«": 8868,
      "é©¬åĬĽ": 8869,
      "åı·ç§įåŃĲ": 8870,
      "åĲİåį«": 8871,
      "ç¥ŀåľ£": 8872,
      "æ¸©å¸¦": 8873,
      "åĽ¾å½¢": 8874,
      "åĴĮä»ĸçļĦ": 8875,
      "æŁĲç§į": 8876,
      "å¯¹éĺµ": 8877,
      "æĵħéķ¿": 8878,
      "åı¤è¿¹": 8879,
      "åħ¬è½¦": 8880,
      "å¤įåĪ¶": 8881,
      "çĪ±å¥½": 8882,
      "çļĦä¸Ģä¸ªåĮº": 8883,
      "éĢĶå¾Ħ": 8884,
      "åį¡çī¹": 8885,
      "è¾£": 8886,
      "åĲįåı«": 8887,
      "åĩıå¼±": 8888,
      "åľ¨ä¸ŃåĽ½å¤§éĻĨ": 8889,
      "ä¼¦æĸ¯": 8890,
      "æľĶ": 8891,
      "å¤ľéĹ´": 8892,
      "è¿ŀç»Ńåī§": 8893,
      "èĻĲ": 8894,
      "æ³¢çī¹": 8895,
      "ae": 8896,
      "ä¹īåĬ¡": 8897,
      "åĲĦå¤§": 8898,
      "èĴ¸æ±½": 8899,
      "æĿ¥çľĭ": 8900,
      "æĺ¯æľĢ": 8901,
      "åı¬éĽĨ": 8902,
      "åĮºåĴĮ": 8903,
      "ä¹ĭä¹±": 8904,
      "ç´§å¼ł": 8905,
      "ç¥·": 8906,
      "åı¯ä»¥çĶ¨": 8907,
      "åĲĦé¡¹": 8908,
      "å¯¹è¯Ŀ": 8909,
      "å¤ĸçķĮ": 8910,
      "Sc": 8911,
      "å¹´æ¯ķä¸ļäºİ": 8912,
      "åįļè§Ī": 8913,
      "ä¸Ģåı·": 8914,
      "iki": 8915,
      "çļĦåĨħ": 8916,
      "èĭ±è¶ħ": 8917,
      "ara": 8918,
      "çļĦä¸Ńå¿ĥ": 8919,
      "ä¿Ŀåį«": 8920,
      "æ³°å°Ķ": 8921,
      "éĺµäº¡": 8922,
      "çļĦéĺ¿": 8923,
      "æº¶æ¶²": 8924,
      "éĻĲäºİ": 8925,
      "æĭ¯": 8926,
      "background": 8927,
      "Ġæ¢ģ": 8928,
      "åĩºäºİ": 8929,
      "å¹¢": 8930,
      "åİ¿çŁ¥åİ¿": 8931,
      "è¿ĺè¦ģ": 8932,
      "é©°": 8933,
      "æĴŀåĩ»åĿĳ": 8934,
      "åľ°åĿĢ": 8935,
      "ç¼ĵæħ¢": 8936,
      "ï¼Īï¼Ľï¼ī": 8937,
      "è°į": 8938,
      "åİĨåı²åŃ¦å®¶": 8939,
      "åı¸ä»¤åĳĺ": 8940,
      "æĭ¦": 8941,
      "Com": 8942,
      "åĲĦç±»": 8943,
      "å¯ĦçĶŁ": 8944,
      "ï¹": 8945,
      "Ġç¬¬ä¸Ģ": 8946,
      "çİ°å·²": 8947,
      "åľŁå£¤": 8948,
      "åīįèĢħ": 8949,
      "çĶµä¿¡": 8950,
      "çº³å·ŀ": 8951,
      "æĸ°åı°å¸ģ": 8952,
      "ä¼įå¾·": 8953,
      "æµģäº¡": 8954,
      "åıĸèĩª": 8955,
      "é©¬è¾¾": 8956,
      "æĽ²çº¿": 8957,
      "æ¤Ń": 8958,
      "å¹´äºļæ´²": 8959,
      "çľģéģĵåı°": 8960,
      "æıĲäº¤": 8961,
      "è¡Ĺéģĵä¸ĭè¾ĸä»¥ä¸ĭåľ°åĮº": 8962,
      "Ġ1997": 8963,
      "è¿ĩæ¸¡": 8964,
      "éħĭ": 8965,
      ";\"": 8966,
      "å°ģéĹŃ": 8967,
      "äººä¸İ": 8968,
      "éĽĨåĽ¢åĨĽ": 8969,
      "åĵĪæĭī": 8970,
      "John": 8971,
      "ç§©åºı": 8972,
      "tel": 8973,
      "ä¸ľåİ¿": 8974,
      "ä¸ºæľŁ": 8975,
      "åĽ½éĺ²éĥ¨": 8976,
      "æĿĳåºĦ": 8977,
      "æĸ°å¢ŀ": 8978,
      "ä¼ĺåħĪ": 8979,
      "èģĮä¸ļçĶŁæ¶¯": 8980,
      "ç«£å·¥": 8981,
      "de": 8982,
      "ä¾µçķ¥": 8983,
      "åħ¬çº¦": 8984,
      "å°±åĥı": 8985,
      "æ±Łè¥¿çľģ": 8986,
      "å¯Ĩçłģ": 8987,
      "ç¡®å®ŀ": 8988,
      "ç¤¾ç¾¤": 8989,
      "ä¸»é¢ĺæĽ²": 8990,
      "åİŁåŀĭ": 8991,
      "\"ï¼Ī": 8992,
      "ä¸ľè·¯": 8993,
      "æĻļéĹ´": 8994,
      "ä½Ĩä»į": 8995,
      "å¼§": 8996,
      "åĻª": 8997,
      "çĽ¸è¾ĥ": 8998,
      "åŃĲåħ¬åı¸": 8999,
      "\",": 9000,
      "æĪĺä¸Ń": 9001,
      "åĮĹå®ĭ": 9002,
      "å¤§éĺŁ": 9003,
      "æ¢ħå°Ķ": 9004,
      "åħįçĸ«": 9005,
      "æĸ°äºº": 9006,
      "ç»§ä½į": 9007,
      "æľĪä¸Ń": 9008,
      "åıĬåĲİ": 9009,
      "ç±»ä¼¼äºİ": 9010,
      "å¤§æŃ£": 9011,
      "åįĥäºº": 9012,
      "ä½Ĩåħ¶": 9013,
      "çĪ±çļĦ": 9014,
      "è¯Ħå®¡": 9015,
      "ä¼ļè®¡": 9016,
      "åįĹå®ĭ": 9017,
      "yn": 9018,
      "æĶ»åĬ¿": 9019,
      "åĳ¨æģ©æĿ¥": 9020,
      "å¤´éĥ¨": 9021,
      "æ³ķå°Ķ": 9022,
      "éĹ½åįĹ": 9023,
      "æĿı": 9024,
      "Ġ1990": 9025,
      "éĢīæ°ĳ": 9026,
      "ç¾İçļĦ": 9027,
      "ç¼ĸåĪ¶": 9028,
      "è¢«ä»»åĳ½ä¸º": 9029,
      "æĹ¶å¸¸": 9030,
      "æŁĲä¸ª": 9031,
      "çļĦæľĢé«ĺ": 9032,
      "ç§ĳå¹»": 9033,
      "ç¥ŀç¤¾": 9034,
      "è½¬ä¹ĺ": 9035,
      "åĮĹæ´ĭ": 9036,
      "ç¾İæľ¯é¦Ĩ": 9037,
      "ä¸İæŃ¤åĲĮæĹ¶": 9038,
      "ä¸ŃæĸŃ": 9039,
      "éģĵå¤«": 9040,
      "ç¿¡": 9041,
      "èĻļæŀĦ": 9042,
      "ISTATä»£çłģä¸º": 9043,
      "åĪ¤å¤Ħ": 9044,
      "Ġâ": 9045,
      "æĹıäºº": 9046,
      "çļĦåīįèº«": 9047,
      "åįģåħŃå¹´": 9048,
      "åıĭè°Ĭ": 9049,
      "çļĦæ¸¸æĪı": 9050,
      "é«ĺå±Ĥ": 9051,
      "è·¯å¾Ħ": 9052,
      "ç¡Ŀ": 9053,
      "éĢļè¡Į": 9054,
      "ä½įäºİè¯¥åĽ½è¥¿åįĹéĥ¨": 9055,
      "Ġçº³": 9056,
      "çĶ·ä¸»è§Ĵ": 9057,
      "çĽĳåĪ¶": 9058,
      "å£°ä¼ĺ": 9059,
      "ç»ħ": 9060,
      "åį³æĹ¶": 9061,
      "è¾ĥå¤§çļĦ": 9062,
      "ma": 9063,
      "å¼Ĺåħ°": 9064,
      "åĪĻä»¥": 9065,
      "oft": 9066,
      "æĺİçļĦ": 9067,
      "çº¦åħĭ": 9068,
      "âĢĿï¼ĮâĢľ": 9069,
      "rit": 9070,
      "å¾Ĺä¸»": 9071,
      "å¤±è¸ª": 9072,
      "ä½įäºİè¯¥åĽ½åįĹéĥ¨": 9073,
      "éĹ¯": 9074,
      "105": 9075,
      "åĽ½å¤ĸ": 9076,
      "ĠTe": 9077,
      "CC": 9078,
      "å¤ªç¥ĸ": 9079,
      "æ¸ħæ°´": 9080,
      "æĿĢäºº": 9081,
      "æĹ¶éĢŁ": 9082,
      "ä¿¡å¥ī": 9083,
      "center": 9084,
      "ĠæĹ¥": 9085,
      "å¯ħ": 9086,
      "è®¯æģ¯": 9087,
      "çĥŃå¸¦ä½İæ°Ķåİĭ": 9088,
      "å¸ķå°Ķ": 9089,
      "åħĭåĪ©": 9090,
      "åŃĺåľ¨äºİ": 9091,
      "æ¬¡æķ°": 9092,
      "åĳ¨æľ«": 9093,
      "è¡ĮæĶ¿éķ¿å®ĺ": 9094,
      "æ³¢å£«é¡¿": 9095,
      "åĨĽèĪ°": 9096,
      "ç»´åĲ¾å°Ķ": 9097,
      "ç»ĨèĬĤ": 9098,
      "æĤ¼": 9099,
      "åıĪæľī": 9100,
      "åįģåħ«å¹´": 9101,
      "éĿ¢ä½ĵ": 9102,
      "åįģäºĮæľĪ": 9103,
      "ç«ĭåĪ»": 9104,
      "SM": 9105,
      "çļĦå»ºçŃĳ": 9106,
      "ç«ĭå¤§åŃ¦": 9107,
      "æĺŁéĻħ": 9108,
      "å¤įåĲĪ": 9109,
      "æľĢåĲİçļĦ": 9110,
      "èªīä¸º": 9111,
      "æĹłçº¿çĶµ": 9112,
      "è¯ĬæĸŃ": 9113,
      "çŃĸåĪĴ": 9114,
      "æĥħèĬĤ": 9115,
      "è´¢ç»ı": 9116,
      "Ġç¬¬äºĮ": 9117,
      "åįģåĽĽå¹´": 9118,
      "ä¸įå¤ļ": 9119,
      "æį¢ä¹ĺ": 9120,
      "è¾½å®ģçľģ": 9121,
      "åĸĩåĺĽ": 9122,
      "åĪĽå§ĭäºº": 9123,
      "ç»Łæ²»èĢħ": 9124,
      "æį®è¯´": 9125,
      "å°Ħåħ¥": 9126,
      "éĺ²åį«": 9127,
      "åħ¸åŀĭçļĦ": 9128,
      "æ¯«æĹł": 9129,
      "ä¸ĢçĶŁ": 9130,
      "äºĶä¸ĸ": 9131,
      "IR": 9132,
      "å°Ķå¤«": 9133,
      "çļĦæ´»åĬ¨": 9134,
      "åħ¬ç½²": 9135,
      "åĲ¦åĪĻ": 9136,
      "å¡ĶåŁº": 9137,
      "ç¿°æŀĹéĻ¢": 9138,
      "åıĤè®®åĳĺ": 9139,
      "ç²ĺ": 9140,
      "çĽĨåľ°": 9141,
      "æĸĩçļĦ": 9142,
      "æĲŃéħį": 9143,
      "çĥ¦": 9144,
      "äº¤åıī": 9145,
      "çľŁçļĦ": 9146,
      "æŃ§è§Ĩ": 9147,
      "Ġå¦Ĥæŀľ": 9148,
      "è¿ĽåĨĽ": 9149,
      "ance": 9150,
      "ä¸ºæĹ¥æľ¬": 9151,
      "é»Ħæ²³": 9152,
      "Ġåº·": 9153,
      "åľ¨æ¬§æ´²": 9154,
      "åĲİåĽł": 9155,
      "æĢ»å±Ģ": 9156,
      "ä½ľè¯į": 9157,
      "å·¥åħļ": 9158,
      "å®ŀä½ĵ": 9159,
      "èįīåİŁ": 9160,
      "æµĳ": 9161,
      "éģĹè¿¹": 9162,
      "æ¨¡çī¹åĦ¿": 9163,
      "çĳ°": 9164,
      "åħīåŃ¦": 9165,
      "çļĦçī¹å¾ģ": 9166,
      "ä¸Ģä»½": 9167,
      "åĨħæĶ¿": 9168,
      "èĤ¡ç¥¨": 9169,
      "æ³¢éŁ³": 9170,
      "æĿ¡æ¬¾": 9171,
      "è°ĭæĿĢ": 9172,
      "é«ĺå±±": 9173,
      "å½ĵçĦ¶": 9174,
      "çĶµè§ĨåĬ¨çĶ»": 9175,
      "ç¯ĩå°ıè¯´": 9176,
      "éĺ¿æĭīå·´é©¬": 9177,
      "è½¦åŀĭ": 9178,
      "ä¼Ĳåħĭ": 9179,
      "æĸ°è¥¿åħ°": 9180,
      "æİ¥å£¤": 9181,
      "ä¸Ģé¡¹": 9182,
      "åħ´èµ·": 9183,
      "ä¹ĭåīįçļĦ": 9184,
      "èĪªç©ºæ¯įèĪ°": 9185,
      "èµ·è¯ī": 9186,
      "èĮ¨åŁº": 9187,
      "æ¢¦æĥ³": 9188,
      "ä¸ºé£Ł": 9189,
      "åĬ¨æĢģ": 9190,
      "åĴĢ": 9191,
      "æ¹Ľ": 9192,
      "çĲĨäºĭä¼ļ": 9193,
      "æľºç»Ħ": 9194,
      "ä¹¡éģĵ": 9195,
      "èĿĻ": 9196,
      "åĬ¨å·¥": 9197,
      "ä¸ĸçºªæľ«": 9198,
      "çİ«": 9199,
      "åİĤåķĨ": 9200,
      "èĴĤåĪ©äºļ": 9201,
      "1910": 9202,
      "å¹³è¡Į": 9203,
      "å¨ģå°¼æĸ¯": 9204,
      "åĲĹ": 9205,
      "å¤§ä½¿é¦Ĩ": 9206,
      "æŃ¤åľ°": 9207,
      "èĿĻèĿł": 9208,
      "çĶµåİĭ": 9209,
      "åĶ±çīĩåħ¬åı¸": 9210,
      "æĶ¾å°Ħ": 9211,
      "å®¢å®¶": 9212,
      "äºİåĲĮå¹´": 9213,
      "éĿĴæĺ¥": 9214,
      "ç¦¹": 9215,
      "ç³»çļĦ": 9216,
      "æ»´": 9217,
      "æĺ¯ä¸Ģå®¶": 9218,
      "æĺ¯åįĹæŀģæ´²çļĦ": 9219,
      "Te": 9220,
      "éĩįçĤ¹æĸĩçī©ä¿ĿæĬ¤åįķä½į": 9221,
      "æĤ¬æĮĤ": 9222,
      "æľºåĻ¨äºº": 9223,
      "æĻ¯è§Ĥ": 9224,
      "ç»įåħ´": 9225,
      "å¹´çĲĥåŃ£": 9226,
      "ç©ºè°ĥ": 9227,
      "æĽ²çĽ®": 9228,
      "èĬĤå¥ı": 9229,
      "æĬķæīĭ": 9230,
      "çĦ°": 9231,
      "çļĦä¸Ģåº§åŁİå¸Ĥ": 9232,
      "ä¸įåıĹ": 9233,
      "çļĦéĩĳ": 9234,
      "ä¹ŀ": 9235,
      "èĥĥ": 9236,
      "å¸¦æĿ¥çļĦ": 9237,
      "è½¬åıĺ": 9238,
      "çļĦç¤¾ä¼ļ": 9239,
      "å¼Ģä¸ļ": 9240,
      "ck": 9241,
      "å¹´æľī": 9242,
      "éħ±": 9243,
      "çļĦçĥŃ": 9244,
      "åĲĦåľ°çļĦ": 9245,
      "åĲĮæ²»": 9246,
      "æĢ»åı¸ä»¤": 9247,
      "ä¸ĵçº¿": 9248,
      "æĬ¤çħ§": 9249,
      "å½±åĵįåĬĽ": 9250,
      "è°¢å°Ķ": 9251,
      "åĩºçĶŁåľ¨": 9252,
      "å¹¿ä¹ī": 9253,
      "èĨ¨": 9254,
      "ä¸ģåł¡": 9255,
      "çļĦæ¯ĶèµĽ": 9256,
      "å¤§èģĶçĽŁ": 9257,
      "åĨ³çŃĸ": 9258,
      "illi": 9259,
      "æĶ»åħ¥": 9260,
      "çīĻé½¿": 9261,
      "é¢ĨéĺŁ": 9262,
      "è¿ģå¾Ģ": 9263,
      "ç¥ŀçĪ¶": 9264,
      "è°´": 9265,
      "åĲ¬åĪ°": 9266,
      "ä¸Ģè·¯": 9267,
      "æ¿Ĵ": 9268,
      "å¾®åįļ": 9269,
      "åŃĺåĤ¨": 9270,
      "Qu": 9271,
      "å®°çĽ¸": 9272,
      "ML": 9273,
      "enn": 9274,
      "ps": 9275,
      "ä¹Łèĥ½": 9276,
      "ãĢĭï¼Īï¼īï¼Į": 9277,
      "ç¿¡ç¿ł": 9278,
      "çļĨä¸º": 9279,
      "ç²īä¸Ŀ": 9280,
      "ins": 9281,
      "éļıä¹ĭ": 9282,
      "æĶ¯æĮģèĢħ": 9283,
      "æĹ¥æ²»æĹ¶æľŁ": 9284,
      "æĺ¯ä¸Ģé¢ĹæģĴæĺŁ": 9285,
      "ç¡®ç«ĭ": 9286,
      "è¯¥çī©ç§įçļĦæ¨¡å¼ıäº§åľ°åľ¨": 9287,
      "çļĦåħ¨": 9288,
      "Ġåħīç»ª": 9289,
      "éĺ¿èĤ¯": 9290,
      "Ã¡": 9291,
      "å¾Īéļ¾": 9292,
      "å¤§åŃ¦çĶŁ": 9293,
      "ð«ļ": 9294,
      "ve": 9295,
      "Ġèĭ¥": 9296,
      "èĹĵ": 9297,
      "çľĭæ³ķ": 9298,
      "åĬ¨è½¦ç»Ħ": 9299,
      "çĶ²ç»Ħ": 9300,
      "ilver": 9301,
      "åŃľ": 9302,
      "å¤§åĨĽ": 9303,
      "èĤīé£ŁæĢ§": 9304,
      "é«ĺåľ°": 9305,
      "çłĶç©¶åĳĺ": 9306,
      "æ©Ļ": 9307,
      "å¤§åŁĶ": 9308,
      "èĢĥåħ¥": 9309,
      "å©ļç¤¼": 9310,
      "åī©ä½Ļ": 9311,
      "å·´å¡ŀ": 9312,
      "çļĦè¥¿": 9313,
      "åı¤å¸ĮèħĬ": 9314,
      "ï¼Īï¼īãĢģ": 9315,
      "æĻ®æŀĹ": 9316,
      "æ²§": 9317,
      "æĥĳ": 9318,
      "af": 9319,
      "è¾ŀåİ»": 9320,
      "å¹¶ä¸º": 9321,
      "å·®è·Ŀ": 9322,
      "åı°é£İèŃ¦æĬ¥": 9323,
      "Ġid": 9324,
      "çĶŁéķ¿åľ¨": 9325,
      "ç§°èµŀ": 9326,
      "åįĬå¾Ħ": 9327,
      "åĩłåĨħäºļ": 9328,
      "çļĦç¬¬ä¸ī": 9329,
      "åįģäºĶå¹´": 9330,
      "è°ĥèĬĤ": 9331,
      "æĺİæĺ¾çļĦ": 9332,
      "æīĵéĢł": 9333,
      "æĭīèĲ¨": 9334,
      "æĻ®å°Ķ": 9335,
      "ä¸»åĶ±": 9336,
      "æīĢè°ĵçļĦ": 9337,
      "å¤§å¤§": 9338,
      "åŃĹç¬¦": 9339,
      "åĨ²ç»³": 9340,
      "ä¸Ĭä¸Ģ": 9341,
      "æ³ķåŃ¦": 9342,
      "ç±»åĪ«": 9343,
      "ru": 9344,
      "åĲİç»Ń": 9345,
      "èµ¦": 9346,
      "ç½ķè§ģ": 9347,
      "æĸ¯èĴĤ": 9348,
      "æŁĵèī²": 9349,
      "ä¸´åºĬ": 9350,
      "é«ĺå³°": 9351,
      "co": 9352,
      "æ´ªæ°´": 9353,
      "çļĦèº«ä»½": 9354,
      "ç§ĳç½Ĺ": 9355,
      "ä¹ĺåĿĲ": 9356,
      "åĨ¶": 9357,
      "åħ¨ä¹¦": 9358,
      "çĩ¥": 9359,
      "æ°Ľ": 9360,
      "åħ¶ä¸Ńæľī": 9361,
      "ä»ªåĻ¨": 9362,
      "æ¿ĳ": 9363,
      "å±ĭé¡¶": 9364,
      "åĪĨäº«": 9365,
      "ç»Ĵ": 9366,
      "å¢ĥåĨħçļĦ": 9367,
      "éĽĨä¼ļ": 9368,
      "ica": 9369,
      "ĠåĽł": 9370,
      "çļĦé©¬": 9371,
      "æ£į": 9372,
      "çªŁ": 9373,
      "é»ı": 9374,
      "å°¼åı¤æĭī": 9375,
      "å¹´ä¸º": 9376,
      "è´¨çļĦ": 9377,
      "å°ģéĶģ": 9378,
      "åľºåĲĪ": 9379,
      "æĴŃåĩºçļĦ": 9380,
      "æŃ»åİ»": 9381,
      "å´ĩæĭľ": 9382,
      "æĹ¶éĹ´çļĦ": 9383,
      "ä¿±": 9384,
      "éª¤": 9385,
      "äº¦ä¸º": 9386,
      "åľ¨åįĹ": 9387,
      "æ§Ł": 9388,
      "Ad": 9389,
      "çī¢": 9390,
      "æĸ¯å¤§": 9391,
      "èĲ¥åħ»": 9392,
      "è·¯åĨĽ": 9393,
      "çŁ¥åĲįçļĦ": 9394,
      "GA": 9395,
      "color": 9396,
      "è¯ºæĸ¯": 9397,
      "çī©çĲĨåŃ¦å®¶": 9398,
      "åłµ": 9399,
      "Ġå°¼": 9400,
      "åľ£æ®¿": 9401,
      "ä¼Ĭå°Ķ": 9402,
      "åĲĵ": 9403,
      "åŀĭæľºè½¦": 9404,
      "å°Ĭéĩį": 9405,
      "æĢ»æĺ¯": 9406,
      "æŃ£ç»Ł": 9407,
      "å¾Ĺç¥¨": 9408,
      "è½¦çļĦ": 9409,
      "åĺīå®¾": 9410,
      "æĶ¹ç»Ħ": 9411,
      "çĻ¾å¹´": 9412,
      "ä¸¹å°¼": 9413,
      "çĽ¸å¯¹äºİ": 9414,
      "äº¦åı¯": 9415,
      "è¡¥ç»Ļ": 9416,
      "éħ°": 9417,
      "orld": 9418,
      "è¡Ģæ¶²": 9419,
      "å°ģéĿ¢": 9420,
      "åıĳçĶµåİĤ": 9421,
      "åıĪè¢«": 9422,
      "æĶ¾ç½®": 9423,
      "ä¹ĭç§°": 9424,
      "ç£ħ": 9425,
      "èĬ½": 9426,
      "åĵįåºĶ": 9427,
      "æł¡åıĭ": 9428,
      "è¿ĺåĮħæĭ¬": 9429,
      "çĻ¾è´§": 9430,
      "å¥³æĢ§ä¸º": 9431,
      "ress": 9432,
      "å½ķå½±å¸¦": 9433,
      "æ´»åĬ¨çļĦ": 9434,
      "å´ĩç¥¯": 9435,
      "æĶ¿ä½¿": 9436,
      "äº«æľī": 9437,
      "æĸ¯åŁºåĮº": 9438,
      "äººæĸĩ": 9439,
      "çķ¿": 9440,
      "ä¼ļç¤¾": 9441,
      "æŀģå¤§": 9442,
      "åŃ¦åłĤ": 9443,
      "æľĪä»½": 9444,
      "Ġæĸ½": 9445,
      "350": 9446,
      "å¤§äºİ": 9447,
      "çļĦä½ľçĶ¨": 9448,
      "ä¼łæķĻå£«": 9449,
      "åħĭæĸ¯åĿ¦": 9450,
      "éĽ¶åĶ®": 9451,
      "CO": 9452,
      "ä¸ĸçķĮçļĦ": 9453,
      "ree": 9454,
      "çīĽæ´¥": 9455,
      "èĲ¨åħĭæ£®": 9456,
      "è¾©è®º": 9457,
      "Ðµ": 9458,
      "ç¼Ĩ": 9459,
      "äºīè®º": 9460,
      "PlayStation": 9461,
      "å°Ĩä»ĸ": 9462,
      "å»ºç«ĭçļĦ": 9463,
      "æĳĺ": 9464,
      "è¶³çĲĥçĶ²çº§èģĶèµĽ": 9465,
      "è¯¸å¤ļ": 9466,
      "å¤±åİ»äºĨ": 9467,
      "Ġcolspan": 9468,
      "Ġ189": 9469,
      "Ġä¸Ńåįİæ°ĳåĽ½": 9470,
      "æł¡èĪį": 9471,
      "åı¤èĢģçļĦ": 9472,
      "æĪİ": 9473,
      "æĽ´æĶ¹": 9474,
      "Ġè®¸": 9475,
      "æĻ®æĭī": 9476,
      "Ġæľ¬é±¼": 9477,
      "ç»£": 9478,
      "åı¯åĪĨä¸º": 9479,
      "çª¦": 9480,
      "æĶ¿æ²»å±Ģ": 9481,
      "ï¼Į\"": 9482,
      "æĴŃæĺł": 9483,
      "éĩİçĶŁ": 9484,
      "å±±èĦīçļĦä¸Ģéĥ¨åĪĨ": 9485,
[...]
